<unk>	0
<s>	0
</s>	0
,	-3.34695
n	-4.2987
.	-4.36663
\	-4.38105
▁có	-4.7295
▁tăng	-4.76052
▁nhận	-4.8978
▁thương	-4.93889
:	-5.00788
▁công	-5.02427
▁sát	-5.0356
▁thể	-5.0935
▁thần	-5.13255
▁khi	-5.14143
▁của	-5.14628
s	-5.17758
▁không	-5.19704
▁kích	-5.20474
▁trong	-5.20738
▁và	-5.23812
▁	-5.23862
▁bị	-5.32646
▁cấp	-5.33909
▁1	-5.43646
-	-5.44091
▁tiên	-5.44531
▁thành	-5.45323
▁hoạt	-5.45945
▁người	-5.51163
▁trang	-5.51242
▁ta	-5.55701
▁chiến	-5.58254
▁sao	-5.6291
▁đã	-5.63485
▁cho	-5.65298
▁được	-5.66253
▁tiêu	-5.66487
▁sẽ	-5.66541
▁là	-5.67887
▁năng	-5.68013
!	-5.6906
▁3	-5.70086
▁thiên	-5.70936
▁lần	-5.76315
▁tấn	-5.76514
▁sau	-5.77215
▁\	-5.77445
▁một	-5.77768
▁linh	-5.80359
▁hp	-5.85574
▁kỹ	-5.87277
▁mỗi	-5.88569
)	-5.90081
▁thưởng	-5.91191
·	-5.91349
▁lực	-5.94799
▁thời	-5.95006
▁điểm	-5.95314
▁tính	-5.97781
▁nhân	-5.98618
▁ra	-5.9887
▁tướng	-5.99706
▁hiệu	-6.00821
▁2	-6.01016
▁thân	-6.015
▁liên	-6.02245
▁dùng	-6.02478
▁long	-6.03117
▁(	-6.03231
▁quả	-6.05426
▁5	-6.0741
▁lệ	-6.07706
▁mục	-6.07951
▁để	-6.08878
▁với	-6.09177
▁minh	-6.09957
▁bản	-6.10571
ng	-6.11079
▁thủ	-6.11393
▁hồn	-6.11548
▁vật	-6.12649
▁bảo	-6.13081
▁bộ	-6.14241
▁mở	-6.17578
▁%	-6.18481
▁vào	-6.19349
▁giới	-6.19877
▁ma	-6.20126
▁lại	-6.20822
▁động	-6.2099
▁này	-6.21502
▁giảm	-6.22939
▁giáp	-6.23372
▁tỉ	-6.23637
▁khí	-6.26752
▁ngày	-6.2799
▁gây	-6.2992
▁đến	-6.3001
▁[	-6.30183
d	-6.30247
▁đồ	-6.30509
▁tinh	-6.32774
▁thuộc	-6.32959
▁địch	-6.33068
▁trận	-6.33112
▁giai	-6.33708
▁thánh	-6.35306
▁nhất	-6.35637
▁đạt	-6.36999
▁lượt	-6.38556
▁hồi	-6.39372
]	-6.39484
▁lên	-6.40072
▁bạn	-6.40969
▁đồng	-6.41948
▁gian	-6.42801
▁cao	-6.44546
*1	-6.4757
▁10	-6.48531
▁anh	-6.50108
▁chỉ	-6.51013
▁cơ	-6.5146
▁tầng	-6.51624
▁{	-6.52022
▁nguyên	-6.5394
▁thêm	-6.53945
?	-6.54109
▁chơi	-6.5586
▁số	-6.56246
▁4	-6.56559
▁boss	-6.57583
ất	-6.57771
▁tục	-6.58425
▁tại	-6.58821
▁đấu	-6.59235
▁biến	-6.59528
▁chủ	-6.59837
▁đầu	-6.60436
▁-	-6.60806
▁đỏ	-6.61076
▁nhữ	-6.61316
▁hóa	-6.61701
▁mình	-6.62
▁vũ	-6.62866
▁toàn	-6.6355
▁vương	-6.636
▁phá	-6.64272
▁chọn	-6.64575
▁từ	-6.65566
▁b	-6.66018
▁phẩm	-6.66367
▁chuyển	-6.6663
}	-6.66906
▁đội	-6.6748
】	-6.67524
▁gia	-6.6811
▁pháp	-6.68474
▁kiếm	-6.68514
▁phát	-6.68614
▁hoàn	-6.68769
▁phải	-6.69347
▁các	-6.69541
;%	-6.69572
▁mới	-6.69773
▁tạo	-6.69817
▁làm	-6.702
▁luyện	-6.70346
▁hộ	-6.70379
▁giây	-6.70547
▁đa	-6.706
▁tối	-6.71374
▁thạch	-6.71452
▁nhiều	-6.72067
▁cô	-6.73538
▁bậc	-6.73654
▁ngươi	-6.73859
▁thế	-6.7469
▁""	-6.74975
▁phong	-6.75232
▁nhiên	-6.76127
▁cùng	-6.76678
▁hoa	-6.76819
_	-6.77217
▁tự	-6.77311
▁hiện	-6.77557
▁bạo	-6.77666
▁đó	-6.78166
▁trước	-6.7839
▁thu	-6.7913
▁ngọc	-6.79164
▁tử	-6.81454
▁hạ	-6.81781
▁đi	-6.82128
▁10%	-6.83151
▁nói	-6.84704
i	-6.851
▁tích	-6.85664
▁đạo	-6.8585
▁như	-6.85902
▁ấn	-6.86084
▁còn	-6.86194
▁nhưng	-6.87445
▁sự	-6.87514
ncông	-6.87631
▁hợp	-6.88082
▁kim	-6.88176
▁tiếp	-6.88224
▁yêu	-6.88377
▁định	-6.90152
▁miễ	-6.90267
▁sinh	-6.92079
▁ở	-6.92916
▁càng	-6.94108
▁văn	-6.94149
▁đánh	-6.94437
▁tiến	-6.94484
;	-6.95262
▁thú	-6.95714
chiến	-6.96061
▁kết	-6.96222
nhp	-6.96541
▁cách	-6.98326
▁đang	-6.99382
▁liệu	-6.9942
▁tượng	-6.99708
▁hoàng	-6.99729
▁sức	-7.00004
▁hỏa	-7.00263
▁thái	-7.00324
▁6	-7.00376
▁hệ	-7.00766
nthủ	-7.01064
▁đại	-7.01893
▁mảnh	-7.02284
▁cd	-7.02755
","	-7.03816
▁trở	-7.03952
▁mua	-7.04042
▁khóa	-7.04192
▁nâng	-7.04435
▁"	-7.04829
▁về	-7.05772
▁giải	-7.05938
▁độ	-7.05949
▁hình	-7.05959
▁quân	-7.06456
▁【	-7.06809
▁khác	-7.06851
▁hành	-7.07642
▁mạnh	-7.07692
▁“	-7.0781
▁vị	-7.0796
▁ải	-7.08104
▁sủng	-7.08445
▁trên	-7.09014
▁chưa	-7.09591
▁cảnh	-7.09592
▁thăng	-7.09655
▁binh	-7.10287
▁ứng	-7.10606
▁tứ	-7.11275
▁quà	-7.11723
▁hồng	-7.12402
▁lượng	-7.12557
▁đây	-7.12908
▁giám	-7.13219
▁tìm	-7.14886
▁xác	-7.14905
▁cũng	-7.14916
▁trường	-7.15219
▁chính	-7.15705
▁cả	-7.16121
▁giá	-7.16379
▁bằng	-7.16981
▁chúng	-7.17006
▁hạn	-7.1737
m	-7.17532
▁tâm	-7.17814
▁vô	-7.17911
▁chế	-7.1841
▁đổi	-7.1866
▁thông	-7.18948
▁h	-7.19656
▁vụ	-7.19793
▁tháp	-7.19905
▁con	-7.20108
▁vực	-7.21257
▁triệu	-7.21569
▁nếu	-7.21884
▁thẻ	-7.2239
▁hạng	-7.22392
▁20%	-7.22475
▁theo	-7.22703
▁qua	-7.23111
▁quốc	-7.23289
▁đối	-7.24163
ãy	-7.24232
▁tình	-7.24247
▁cần	-7.24613
nphá	-7.25034
▁ngẫu	-7.25498
▁khiến	-7.2552
▁quái	-7.25644
▁thấy	-7.26168
▁danh	-7.26482
▁quang	-7.26624
▁chân	-7.27862
▁tổng	-7.28301
▁cam	-7.28678
▁gì	-7.29452
▁cụ	-7.29801
▁lv	-7.29849
▁thanh	-7.30166
▁họ	-7.30445
▁nhiệm	-7.30958
▁cái	-7.30973
▁kỳ	-7.31191
▁hàng	-7.31252
▁vượt	-7.31597
▁lý	-7.31733
▁điều	-7.31741
▁quỷ	-7.32152
▁trị	-7.32207
▁phụ	-7.32614
▁đan	-7.3306
▁server	-7.33486
hiệu	-7.33722
▁quan	-7.34098
▁lĩnh	-7.34395
▁lôi	-7.34695
▁thí	-7.34801
▁hơn	-7.35125
▁thức	-7.35482
thuộc	-7.36428
▁tham	-7.3647
▁đủ	-7.36514
▁thủy	-7.3699
êu	-7.37046
▁viên	-7.37623
▁8	-7.38088
▁thứ	-7.38543
▁nữ	-7.38924
▁nạp	-7.39003
▁ấy	-7.39011
▁đột	-7.39114
▁mặc	-7.39286
▁nhập	-7.39352
▁trì	-7.39405
▁+	-7.39518
▁s	-7.39776
▁exp	-7.40068
▁sư	-7.40417
▁ý	-7.40448
▁sử	-7.4095
▁nó	-7.41001
▁cuối	-7.41758
▁quanh	-7.41878
▁tộc	-7.42104
▁dụng	-7.42111
▁trạng	-7.42287
▁muốn	-7.4237
▁phòng	-7.424
▁dưới	-7.42637
▁lớn	-7.42731
▁băng	-7.43153
▁bí	-7.4371
▁rương	-7.43821
▁nào	-7.43977
▁xuất	-7.4401
▁7	-7.44183
▁cường	-7.44309
▁biết	-7.44338
▁độc	-7.44901
▁phục	-7.4518
▁r	-7.45432
▁trí	-7.46247
▁{0}	-7.46286
▁rơi	-7.46524
▁vi	-7.46569
có	-7.47472
▁tên	-7.47672
▁ký	-7.47819
▁lễ	-7.487
▁thư	-7.48898
▁đều	-7.49045
▁tốc	-7.49342
▁1.	-7.49383
2.	-7.49466
▁đặc	-7.49917
▁thập	-7.49993
▁chúc	-7.50693
▁lúc	-7.5076
▁phù	-7.5093
"}	-7.50951
▁địa	-7.50992
▁bắt	-7.51258
▁kiện	-7.5133
▁sĩ	-7.51331
/	-7.51844
▁hữu	-7.52106
p	-7.52226
▁tới	-7.52304
▁bao	-7.52732
▁tay	-7.52852
▁kẻ	-7.53197
▁vì	-7.53296
▁vệ	-7.53779
▁giao	-7.54038
▁30%	-7.54092
▁cổ	-7.54158
▁5%	-7.54165
▁rằng	-7.54772
▁hải	-7.54809
▁kỵ	-7.54879
▁$1	-7.55198
▁vạn	-7.55357
▁lợi	-7.55375
▁mà	-7.55784
▁vậy	-7.55812
▁rồi	-7.55991
▁xung	-7.5632
▁t	-7.56737
▁tu	-7.56854
▁chịu	-7.57003
▁thường	-7.57132
▁trợ	-7.57149
▁knb	-7.57222
▁bên	-7.57857
▁vĩnh	-7.58036
▁{"	-7.58257
color	-7.5844
▁chi	-7.58522
▁tương	-7.58598
▁hoặc	-7.58863
...	-7.58886
▁thì	-7.59193
▁bại	-7.59274
▁cầu	-7.59725
▁ngay	-7.59814
▁lưu	-7.6052
▁thi	-7.6101
▁quá	-7.61068
▁dực	-7.61191
▁mặt	-7.61619
▁tỉnh	-7.61726
▁giúp	-7.61821
▁giờ	-7.62038
▁đá	-7.62131
▁chú	-7.6238
▁diệt	-7.62523
▁hội	-7.63056
▁vòng	-7.63091
▁cảm	-7.64785
=""	-7.65319
▁thất	-7.65376
▁phi	-7.65549
▁c	-7.66588
▁mất	-7.66916
▁thuẫn	-7.67225
▁loại	-7.67237
▁ngoại	-7.6735
▁thuật	-7.67909
▁trọng	-7.68147
▁phản	-7.68903
▁nay	-7.69054
▁phép	-7.69282
▁tất	-7.69351
▁thắng	-7.69514
a	-7.69533
▁nhìn	-7.71417
▁thực	-7.71509
"	-7.71827
%	-7.71912
▁x	-7.71978
【	-7.72252
▁cực	-7.72528
▁lấy	-7.73299
▁diện	-7.73325
▁dự	-7.73546
▁nguyệt	-7.73924
▁thúc	-7.73935
▁phạm	-7.7402
▁ảnh	-7.74512
▁xuống	-7.74751
▁châu	-7.74876
word	-7.75239
▁mắt	-7.75245
▁quyền	-7.75367
▁món	-7.75607
▁tọa	-7.76753
▁9	-7.76993
▁nhanh	-7.77369
▁suất	-7.77978
▁viễn	-7.77984
▁phương	-7.78112
▁khỏi	-7.7823
▁vẫn	-7.78234
▁50%	-7.7882
▁huyền	-7.78985
tăng	-7.79157
▁)	-7.79176
▁mọ	-7.79252
▁la	-7.79318
▁kế	-7.79494
▁duy	-7.79651
▁bỏ	-7.79907
▁sơn	-7.80777
▁quyết	-7.81073
▁cứ	-7.81464
▁khống	-7.81586
▁xếp	-7.8211
▁tỷ	-7.83075
3.	-7.83109
▁15	-7.83378
1	-7.83426
▁doanh	-7.83565
▁hắn	-7.83833
▁phía	-7.8386
.\	-7.84136
▁cung	-7.8437
▁gói	-7.84405
▁báo	-7.85362
▁bang	-7.85474
▁trúng	-7.86075
▁đế	-7.86911
▁cộng	-7.87366
▁hồ	-7.87653
▁đường	-7.87783
▁ngự	-7.87996
▁sáng	-7.88203
▁tin	-7.8854
▁15%	-7.88618
▁hiệp	-7.88778
▁vui	-7.88799
▁lập	-7.88906
▁vàng	-7.88958
▁phú	-7.89142
▁phúc	-7.89214
▁cá	-7.89241
▁mừng	-7.90036
▁chất	-7.90331
▁ai	-7.90532
▁lộ	-7.90726
▁lam	-7.90764
▁lòng	-7.91191
▁kinh	-7.91525
▁lệnh	-7.91967
▁tuyệt	-7.92193
▁huyết	-7.92412
▁nhau	-7.92925
(	-7.93001
▁「	-7.9321
▁chuẩn	-7.9353
tính	-7.9372
▁thừa	-7.93804
▁nước	-7.93959
"",	-7.94031
▁huy	-7.94299
▁y	-7.94638
▁khung	-7.94707
2	-7.94822
▁dịch	-7.94869
▁đề	-7.9528
▁60	-7.95349
▁thượng	-7.95676
▁phóng	-7.95854
|	-7.95857
▁tranh	-7.9607
▁tư	-7.96347
▁phần	-7.96358
▁dương	-7.96375
▁di	-7.96814
▁30	-7.97216
▁ác	-7.97417
”	-7.97534
▁lạc	-7.98358
▁quay	-7.98402
▁vân	-7.98441
▁xem	-7.98541
▁khôi	-7.98683
▁hai	-7.98694
▁...	-7.98759
▁nên	-7.98961
▁hết	-7.99122
▁hoạch	-7.99272
▁lũy	-7.99433
▁biệt	-7.99586
▁ông	-8.01002
▁đơn	-8.01169
▁top	-8.01511
▁nhà	-8.0196
▁tức	-8.02486
▁tổn	-8.03445
▁50	-8.04048
▁năm	-8.04236
▁bạch	-8.04652
h	-8.04945
▁ngũ	-8.04978
▁đỉnh	-8.05111
▁đầy	-8.05234
▁đăng	-8.05239
▁tra	-8.05265
▁100	-8.05282
▁trả	-8.05518
▁phân	-8.05532
ph	-8.05548
▁máu	-8.05723
▁giả	-8.05929
▁khảm	-8.05984
thg	-8.06055
▁lời	-8.06069
▁sống	-8.06211
▁tam	-8.06404
▁tiểu	-8.07115
▁12	-8.07154
▁thích	-8.07249
▁trung	-8.07315
▁chết	-8.07831
▁hôm	-8.07945
▁tầm	-8.08264
▁dị	-8.08389
▁do	-8.08446
▁hoang	-8.08755
▁lâm	-8.0929
▁phí	-8.09598
▁dồn	-8.09626
▁mệnh	-8.09801
▁tôn	-8.09864
thiên	-8.09994
▁thật	-8.10721
▁cửu	-8.10748
▁treo	-8.11043
▁thù	-8.11302
▁chương	-8.11389
▁huyễn	-8.11797
▁nghĩ	-8.12035
▁rượu	-8.12096
▁tỏa	-8.12655
▁trưởng	-8.12795
t	-8.12957
▁tố	-8.13495
▁máy	-8.13886
▁sương	-8.14084
r	-8.14169
▁kháng	-8.1439
▁điện	-8.14612
▁mộc	-8.14624
▁khu	-8.14681
▁chí	-8.15286
▁vong	-8.15341
▁vip	-8.15831
tinh	-8.16125
▁thiết	-8.16483
▁kho	-8.16626
▁thuốc	-8.16826
▁branium	-8.16833
▁đốt	-8.16992
▁chức	-8.16994
▁né	-8.17121
▁tuần	-8.17405
▁40	-8.17558
▁võ	-8.17588
chiếc	-8.17774
▁tiếng	-8.1796
▁thống	-8.17981
▁rút	-8.18157
▁trừ	-8.18179
▁môn	-8.18896
▁siêu	-8.19295
▁âm	-8.19365
▁nữa	-8.19545
▁cố	-8.19565
▁tài	-8.20103
▁20	-8.20131
.""	-8.20363
▁hiếm	-8.20631
▁cương	-8.20831
▁100%	-8.21589
▁phượng	-8.21664
▁diễm	-8.21779
▁bình	-8.22167
▁côn	-8.22273
▁sở	-8.22308
▁kèm	-8.22552
▁cuồng	-8.22598
tiên	-8.22733
▁gặp	-8.22944
▁thay	-8.2297
▁bởi	-8.23161
▁nhật	-8.23185
▁triển	-8.23343
kỹ	-8.23606
▁xuyên	-8.2405
o	-8.24226
▁nam	-8.24874
▁ba	-8.25193
▁tác	-8.25535
▁nhỏ	-8.25568
ta	-8.25588
▁d	-8.26135
.”	-8.26197
▁nơi	-8.26364
▁đặt	-8.26366
▁bá	-8.26815
▁lục	-8.26876
▁2%	-8.27356
▁choáng	-8.2746
▁xin	-8.27649
▁gái	-8.27807
▁nghe	-8.27834
▁cuộc	-8.29074
▁vẻ	-8.29271
▁tập	-8.29285
thần	-8.29494
▁ám	-8.29506
▁bóng	-8.29999
▁chúa	-8.30006
▁11	-8.30049
▁mật	-8.30123
▁truyền	-8.30153
▁đất	-8.30178
▁học	-8.30385
▁tốt	-8.3039
▁việc	-8.30757
5	-8.30982
▁dẫn	-8.30987
▁khả	-8.31181
▁lửa	-8.31626
▁khắc	-8.31627
▁dung	-8.31781
▁hỗ	-8.31799
▁gửi	-8.32052
▁bội	-8.32129
▁thấp	-8.32493
▁tổ	-8.32685
▁đôi	-8.32946
▁cây	-8.32972
▁tiền	-8.33367
▁tím	-8.33455
+	-8.33492
▁trời	-8.3358
▁vọng	-8.34018
▁chia	-8.34124
▁mang	-8.34128
▁nội	-8.34353
▁đúng	-8.34503
▁quy	-8.34543
▁đóng	-8.35188
▁chat	-8.3537
▁hao	-8.35612
▁đỡ	-8.35805
▁dài	-8.36253
tf	-8.36787
▁đòn	-8.37439
▁hào	-8.37484
▁khách	-8.37517
▁tôi	-8.37699
▁n	-8.37914
▁cứu	-8.38135
▁hưởng	-8.3832
▁u	-8.38628
▁mộng	-8.38707
▁chuyện	-8.39029
▁khó	-8.39351
▁khố	-8.39628
3	-8.39703
▁chắc	-8.39714
▁tặng	-8.3997
▁chạy	-8.40177
▁bay	-8.40208
▁càn	-8.40288
4	-8.40405
▁bàn	-8.40928
."	-8.41319
▁hiểm	-8.41591
▁giữa	-8.41622
▁ưu	-8.41991
▁nguyện	-8.42071
▁đoạn	-8.42314
▁ngục	-8.42327
▁mức	-8.43278
▁giết	-8.43288
▁riêng	-8.43516
▁diệu	-8.43818
▁đáng	-8.44039
▁nghề	-8.44255
▁biển	-8.44263
▁mạch	-8.44265
▁ngoài	-8.44501
▁quý	-8.44508
▁hà	-8.44676
▁duyên	-8.44764
▁em	-8.44818
▁xa	-8.44905
công	-8.45373
▁giống	-8.45485
▁đệ	-8.4549
▁hàn	-8.45641
▁14	-8.45755
▁13	-8.45822
▁ngộ	-8.46196
▁=	-8.46312
▁ban	-8.46638
▁hổ	-8.47034
nam	-8.47082
▁dạ	-8.47151
mảnh	-8.47206
▁ẩn	-8.47768
▁liệt	-8.47879
▁đằng	-8.48032
▁hấp	-8.48037
▁vận	-8.48506
▁mạng	-8.48762
▁báu	-8.48772
my	-8.48888
▁mời	-8.49021
▁0	-8.49101
▁chữ	-8.49481
▁thiêu	-8.4988
▁hỏi	-8.50046
▁vừa	-8.50062
y	-8.50269
▁ánh	-8.5036
tổng	-8.50592
▁hư	-8.50876
*5	-8.51004
▁đưa	-8.5136
▁giác	-8.51413
▁dù	-8.51418
hurt	-8.51612
▁sợ	-8.51786
▁nộ	-8.52001
▁đông	-8.52007
▁sắc	-8.5242
▁lan	-8.53105
▁may	-8.53173
▁thoát	-8.53208
▁dao	-8.53277
▁khôn	-8.53305
▁bát	-8.53355
▁+500	-8.53466
num	-8.53743
▁đoạt	-8.53764
4.	-8.53778
▁+1000	-8.5396
▁cánh	-8.54306
▁chắn	-8.54555
▁song	-8.54736
▁nhớ	-8.55097
▁25%	-8.55251
▁màu	-8.55968
▁6%	-8.55977
▁nghiệm	-8.56195
▁thử	-8.56207
▁xuân	-8.5622
▁oa	-8.56247
link	-8.56471
▁chiếm	-8.56495
」	-8.565
▁mùa	-8.56801
▁tuyết	-8.56822
boss	-8.57319
▁tụ	-8.57687
▁ngờ	-8.57871
▁{#	-8.57891
▁hùng	-8.57902
▁sách	-8.57941
▁rèn	-8.58151
toàn	-8.58178
ene	-8.58269
▁thấu	-8.58993
phân	-8.59035
▁ăn	-8.59035
▁bách	-8.59118
▁tồn	-8.59847
▁đừng	-8.60489
▁sơ	-8.60572
▁triều	-8.60763
▁60%	-8.60838
ff	-8.60945
▁trượng	-8.61012
▁mau	-8.61167
▁lâu	-8.61288
vũ	-8.61339
▁rừng	-8.61581
▁cốt	-8.61632
▁lăng	-8.61926
▁tà	-8.61937
▁bxh	-8.61947
open	-8.62162
▁pvp	-8.62179
▁hướng	-8.62183
▁đen	-8.62445
▁vua	-8.62516
▁dân	-8.62745
▁kéo	-8.62753
▁dũng	-8.62788
▁cửa	-8.62795
▁thụ	-8.63008
▁vinh	-8.63066
không	-8.63109
▁avatar	-8.63348
▁đình	-8.63354
▁victoria	-8.63373
sau	-8.63405
▁v	-8.63582
▁yếu	-8.6364
▁rời	-8.63642
▁phách	-8.63966
monster	-8.64233
.」	-8.64501
▁đoàn	-8.64523
▁sâu	-8.64534
▁cầm	-8.64551
6	-8.64668
▁viêm	-8.64878
▁tường	-8.64908
▁ca	-8.6498
▁+2500	-8.6543
▁cát	-8.65504
▁a	-8.65627
b	-8.65856
▁trạc	-8.66071
▁40%	-8.66118
▁mê	-8.66163
▁li	-8.66683
▁tai	-8.66875
sát	-8.66964
",	-8.66978
▁hiểu	-8.66981
▁lính	-8.67279
▁gần	-8.67284
percent	-8.67577
▁bước	-8.67898
▁+100000	-8.67911
▁hỗn	-8.68118
▁sắp	-8.6917
▁tẩy	-8.69183
!""	-8.69377
▁200%	-8.69577
▁trực	-8.69765
▁chút	-8.69856
c	-8.70003
f	-8.70598
0	-8.7067
e	-8.70676
▁săn	-8.70754
▁+100	-8.70983
▁≥	-8.71039
▁3%	-8.71593
▁hủy	-8.71704
▁tả	-8.72001
▁đợi	-8.72333
▁niên	-8.72342
▁đãi	-8.72356
▁giáo	-8.72778
▁chờ	-8.7299
tối	-8.73099
▁hay	-8.73318
▁đâu	-8.73964
▁câu	-8.73968
▁đe	-8.7402
▁giáng	-8.74111
▁4%	-8.74271
▁trùng	-8.74312
▁yên	-8.74634
▁tháng	-8.74955
▁chố	-8.75009
▁thị	-8.756
▁nhĩ	-8.7562
].	-8.75652
▁phó	-8.75735
▁bạc	-8.75937
▁rai	-8.75983
▁tàn	-8.75986
10	-8.76243
▁alvine	-8.7631
▁bài	-8.76339
▁1%	-8.76432
▁lãnh	-8.76653
▁ghép	-8.76659
▁bích	-8.76778
▁giữ	-8.77264
▁chỗ	-8.77313
▁ngân	-8.7732
▁bố	-8.77326
▁16	-8.77334
kích	-8.77463
▁chùy	-8.77665
▁lão	-8.77682
thượng	-8.77806
▁đàn	-8.77914
▁lang	-8.78266
▁quần	-8.78347
▁xong	-8.78355
▁cướp	-8.78692
uy	-8.78773
▁nga	-8.79034
▁đoán	-8.79375
.||(	-8.79441
▁+1%	-8.7947
1.	-8.79546
▁hoán	-8.79548
▁phe	-8.79727
▁$2	-8.79809
▁+5000	-8.79981
▁kính	-8.80085
▁lai	-8.80362
▁truy	-8.80487
▁nổi	-8.80508
đ	-8.80654
▁ngài	-8.80795
▁khai	-8.80805
▁buff	-8.80824
▁tắc	-8.81133
phàm	-8.81667
▁bảng	-8.81693
trang	-8.82092
▁an	-8.82383
▁phái	-8.82409
▁chu	-8.82413
12	-8.82522
▁thiếu	-8.8261
▁tín	-8.82686
▁núi	-8.82915
▁thám	-8.82919
▁làng	-8.83015
▁phiếu	-8.83281
▁chiêu	-8.83525
▁trẻ	-8.83638
▁trấn	-8.83753
panel	-8.83957
▁ít	-8.84012
w	-8.84188
▁luôn	-8.84367
▁tiệc	-8.84379
▁diêm	-8.84739
▁tống	-8.84832
▁quên	-8.84916
thời	-8.84939
▁1000	-8.85032
""	-8.85076
▁xâm	-8.85126
▁sắt	-8.85133
linh	-8.85425
▁tế	-8.8545
u	-8.85455
▁mắn	-8.85461
▁lữ	-8.8547
▁luân	-8.85485
▁trứng	-8.85864
▁hút	-8.85908
▁đứng	-8.85992
▁hài	-8.86011
*2	-8.86147
▁nghi	-8.86155
ây	-8.86454
▁đêm	-8.86604
minh	-8.86805
▁hương	-8.86963
▁ngoa	-8.87102
cửu	-8.87182
▁lẽ	-8.87319
▁tước	-8.87344
▁túi	-8.87408
▁mộ	-8.8749
▁phố	-8.87664
▁hậu	-8.87756
▁nhóm	-8.88474
▁nhược	-8.88481
}{	-8.88743
▁viện	-8.88861
▁chấn	-8.88918
▁đào	-8.88932
x	-8.89264
▁cười	-8.89652
▁loạn	-8.89677
▁lao	-8.897
▁đao	-8.89849
▁{1}	-8.90075
▁dracula	-8.90415
▁trình	-8.90415
▁hòa	-8.90416
▁tưởng	-8.90784
▁kiên	-8.909
9	-8.90974
▁ngọ	-8.91154
nt	-8.91426
▁đuổi	-8.9158
▁mã	-8.91866
▁nghĩa	-8.92062
▁cha	-8.92288
▁phổ	-8.92753
▁dễ	-8.92764
▁tội	-8.93162
▁mét	-8.93551
▁uy	-8.93801
▁huyệt	-8.93955
nthần	-8.94129
▁athena	-8.94391
▁hầu	-8.94397
▁điệp	-8.94771
▁rõ	-8.94772
▁hiến	-8.94796
▁+50000	-8.95101
ào	-8.95123
▁tránh	-8.95182
▁cậu	-8.96004
▁sa	-8.96017
▁trầm	-8.96028
▁tể	-8.96398
▁ảo	-8.96448
▁ngăn	-8.96821
▁phàm	-8.97013
▁vu	-8.97188
▁xóa	-8.97233
▁lỗi	-8.9728
phá	-8.97799
phong	-8.97959
▁thể	-8.9806
▁oản	-8.98141
▁khổng	-8.98161
v	-8.98452
▁đài	-8.98509
▁bán	-8.98652
▁bù	-8.98885
▁tiễn	-8.98903
!”	-8.99021
▁tán	-8.99237
▁đời	-8.9933
hp	-8.99338
▁tốn	-8.99355
▁cự	-8.99374
▁phận	-8.99751
nbạo	-8.9989
},	-8.99926
▁du	-9.00011
▁uống	-9.00212
▁lạ	-9.00445
▁bọn	-9.01077
:\	-9.01194
▁cử	-9.01414
▁trốn	-9.01463
▁bishop	-9.01501
▁krana	-9.01515
▁nổ	-9.0183
""},	-9.01872
▁độn	-9.01958
▁thâm	-9.01985
▁thổ	-9.02269
/%	-9.03027
-2	-9.03075
▁áo	-9.032
▁+25%	-9.03254
-1	-9.03394
▁chung	-9.03526
▁pháo	-9.03555
▁mạc	-9.03661
▁tịnh	-9.03674
▁thợ	-9.0369
sơ	-9.03759
7	-9.04007
▁trân	-9.04359
▁tru	-9.04365
▁phạt	-9.04556
▁uyên	-9.04557
ngày	-9.04595
▁quán	-9.05327
▁tung	-9.05531
▁xì	-9.05909
▁rớt	-9.05913
▁kiến	-9.06373
▁lãng	-9.06385
hôm	-9.06827
id	-9.07124
▁mậu	-9.07277
▁mai	-9.07292
▁phiến	-9.07296
▁lịch	-9.07335
pháp	-9.0754
▁đám	-9.07603
.3	-9.07664
tử	-9.07675
▁biểu	-9.07738
▁lì	-9.07742
▁+2000	-9.07745
-3	-9.07806
▁120%	-9.07943
thanh	-9.08137
?”	-9.08191
▁dưỡng	-9.08201
▁kiểm	-9.08201
▁quét	-9.08201
▁ngược	-9.08201
▁mơ	-9.08207
▁tạ	-9.08503
-4	-9.0884
▁tách	-9.09028
▁+250	-9.09138
▁niện	-9.09603
▁8%	-9.10017
▁nha	-9.10058
▁phủ	-9.10075
ntiên	-9.10255
▁l	-9.10437
▁+10000	-9.10605
▁phút	-9.10664
▁1)	-9.10761
▁xà	-9.11002
▁lo	-9.11372
kim	-9.11456
▁kiếp	-9.11503
▁chinh	-9.11522
▁i	-9.11813
ma	-9.11847
▁tròn	-9.1206
mỗi	-9.12443
▁gió	-9.12481
▁phật	-9.12497
▁mỹ	-9.1252
▁ly	-9.12593
▁max	-9.12723
▁200	-9.12777
▁kể	-9.12967
▁nghiệp	-9.13036
▁sai	-9.13072
▁đau	-9.13114
▁giành	-9.13457
▁trúc	-9.13461
▁nguy	-9.13503
▁khiên	-9.13584
▁12%	-9.13867
▁quyển	-9.13933
▁bắn	-9.1395
▁bính	-9.1398
▁cạnh	-9.14429
{	-9.14497
▁hộp	-9.14581
▁lồ	-9.14852
giới	-9.14885
▁ơn	-9.15004
▁chóng	-9.15037
▁thác	-9.15396
▁dần	-9.15415
▁lân	-9.15419
▁hắc	-9.15442
▁nhi	-9.15761
▁kì	-9.15892
▁gục	-9.15915
▁giọng	-9.15951
▁trảo	-9.15987
▁thôi	-9.16433
toggle	-9.16923
▁đẹp	-9.17446
▁đua	-9.17487
▁miêu	-9.1756
▁≤	-9.17941
duy	-9.18197
▁khuyết	-9.1846
?""	-9.18925
▁lilith	-9.18998
▁thuyết	-9.18999
▁tịch	-9.19011
.2.	-9.19467
▁đương	-9.19517
▁shop	-9.19597
tuyệt	-9.20001
▁vách	-9.2001
▁liêm	-9.20019
▁cấm	-9.2006
▁đ	-9.20078
▁gắng	-9.20533
▁trụy	-9.20566
▁xe	-9.20709
~	-9.20772
▁trảm	-9.20867
▁ng	-9.20931
▁thận	-9.21058
trung	-9.21078
▁lá	-9.2121
thủ	-9.21264
▁khải	-9.21343
▁tàng	-9.21472
điểm	-9.21588
khi	-9.21827
ám	-9.21838
▁18	-9.21902
▁giang	-9.21934
▁game	-9.2215
ngự	-9.22251
▁[221]%	-9.22693
▁dòng	-9.22717
▁tuy	-9.22912
▁+50	-9.22944
▁+3000	-9.23064
▁chị	-9.23216
▁tây	-9.23303
▁chứng	-9.23342
▁dữ	-9.24289
▁+150	-9.24522
*3	-9.24522
ndẻo	-9.24822
▁300	-9.25093
▁hạt	-9.25175
▁gọi	-9.2538
▁hẻ	-9.25416
▁lặng	-9.25924
▁giấy	-9.25952
▁kh	-9.26012
▁bổ	-9.26575
.5	-9.26579
▁ngủ	-9.26924
huyền	-9.27016
▁vấn	-9.27038
▁đập	-9.27046
▁nhé	-9.2705
▁lưng	-9.27053
▁thầy	-9.27055
▁yến	-9.27058
quang	-9.27069
▁500	-9.27165
ường	-9.27343
country	-9.276
▁iii	-9.27697
ắp	-9.28053
▁ha	-9.28062
▁sứ	-9.28148
▁đảo	-9.28178
▁giận	-9.28181
▁vây	-9.28192
!{	-9.28735
▁nham	-9.2883
8	-9.28934
bộ	-9.29048
▁mốc	-9.294
▁đứ	-9.29611
▁hét	-9.29881
server	-9.29926
▁tân	-9.29932
▁xạ	-9.29971
▁cốc	-9.29973
áo	-9.302
▁bé	-9.30251
g	-9.30346
▁mù	-9.30355
“	-9.30381
▁thoại	-9.30457
giá	-9.30794
thu	-9.30842
▁mẽ	-9.31039
▁vỡ	-9.3104
▁nhắc	-9.31072
▁bắc	-9.31187
▁mẹ	-9.3163
▁xanh	-9.31671
▁tuyền	-9.31684
cao	-9.31698
的	-9.3185
▁đáp	-9.31964
▁mến	-9.32212
▁liền	-9.32213
▁tùy	-9.32234
▁hằng	-9.32314
5.	-9.32676
▁sản	-9.32762
▁cẩn	-9.32821
▁vết	-9.32827
nguyên	-9.32868
nữ	-9.32913
▁300%	-9.32981
▁hi	-9.33129
▁diễn	-9.33399
▁canh	-9.33464
ndùng	-9.33835
▁ngã	-9.34001
▁đức	-9.34029
▁ngưu	-9.34035
▁7%	-9.34408
▁trò	-9.34505
▁kia	-9.34606
▁lui	-9.34607
▁trần	-9.34608
▁lựa	-9.34612
▁trái	-9.34636
▁thẳng	-9.34641
long	-9.34693
▁ô	-9.34714
hộ	-9.35266
▁đeo	-9.35267
khung	-9.35318
▁tửu	-9.35443
▁trụ	-9.3578
▁dược	-9.35816
▁diệp	-9.35816
▁chăng	-9.35818
▁ii	-9.35851
▁áp	-9.35869
▁ân	-9.35996
▁hôn	-9.36331
vị	-9.36516
bỏ	-9.36518
*10	-9.3653
▁+15000	-9.3654
▁bào	-9.36636
▁yi	-9.36914
▁tê	-9.36961
▁ngừng	-9.37048
▁ràng	-9.37053
▁trắng	-9.37055
▁cài	-9.37121
▁tim	-9.37711
▁ngôi	-9.37779
▁cống	-9.37809
cấp	-9.37819
▁mô	-9.37909
▁toán	-9.38293
▁nhị	-9.38423
▁đản	-9.38442
▁mũ	-9.38511
▁xu	-9.38789
▁buộc	-9.3893
▁phấn	-9.38937
▁nami	-9.39332
▁dẻo	-9.39554
▁hiền	-9.39562
▁rồng	-9.39592
▁dã	-9.39926
▁truyện	-9.40193
▁thảo	-9.40205
▁lí	-9.40208
▁đếm	-9.40537
▁tiết	-9.40855
▁hảo	-9.40871
▁khoáng	-9.40885
bản	-9.40938
2)	-9.41284
▁ngạc	-9.41461
▁sót	-9.41481
▁giấc	-9.41483
▁80%	-9.41582
lưu	-9.41599
ồi	-9.41806
】:	-9.42003
▁căn	-9.42139
▁ngưng	-9.42339
▁lương	-9.42382
▁nặng	-9.4278
▁g	-9.42794
▁tuổi	-9.42832
▁nghệ	-9.42953
▁bè	-9.43025
1\	-9.43069
▁trai	-9.43202
▁ngữ	-9.43439
▁mong	-9.43477
▁mũi	-9.43582
▁+30000	-9.43833
▁ngô	-9.44037
▁lắng	-9.44101
▁khởi	-9.44148
nếu	-9.44236
đủ	-9.44237
95	-9.44356
nchiế	-9.44721
▁già	-9.4474
▁chặn	-9.44776
▁rộng	-9.44799
thẻ	-9.4495
▁gundam	-9.45469
▁+20000	-9.45498
giảm	-9.45568
▁80	-9.4598
▁sớm	-9.46114
▁vùng	-9.46152
trong	-9.46249
thiêu	-9.46268
▁nhu	-9.46576
▁nhấ	-9.46797
anh	-9.4693
8%	-9.46938
nthiên	-9.47365
hậm	-9.47432
。	-9.47477
▁ích	-9.47511
▁rối	-9.47514
▁+1250	-9.47665
▁lật	-9.48172
▁lược	-9.48231
sở	-9.4847
▁sẻ	-9.48866
▁vĩ	-9.48882
▁tận	-9.48891
▁ương	-9.48906
▁medi	-9.48951
vòng	-9.49032
:<<*>/50>/	-9.495
per	-9.49574
▁dây	-9.49662
▁án	-9.4994
nkhi	-9.49957
▁đổ	-9.50165
00	-9.50196
▁nhở	-9.50268
▁khoảng	-9.50271
▁lạnh	-9.50274
▁miller	-9.50348
băng	-9.50474
▁sang	-9.50652
iềm	-9.5072
▁$3	-9.50725
2,	-9.50736
▁mười	-9.50976
▁huynh	-9.5102
▁kiệt	-9.51054
▁chiếu	-9.51694
▁điển	-9.51717
▁bánh	-9.51878
người	-9.51882
nhân	-9.51943
▁nhãn	-9.52124
▁+6000	-9.52255
.2	-9.52325
▁gấp	-9.52413
▁chưởng	-9.52523
▁xích	-9.52639
3)	-9.52836
▁+750	-9.53098
▁hãi	-9.53134
▁trống	-9.53164
▁nhảy	-9.53195
▁so	-9.53241
[	-9.53317
thánh	-9.53384
▁nóng	-9.53527
ầu	-9.5358
▁đai	-9.53627
▁tiệm	-9.53646
▁phu	-9.53872
▁chuyên	-9.53879
▁tuyển	-9.53898
▁thao	-9.53899
▁150	-9.54184
▁14%	-9.54256
>	-9.54597
▁tĩnh	-9.546
▁rìu	-9.5461
▁chấp	-9.54611
▁chảy	-9.54626
lôi	-9.5481
▁kịch	-9.55487
ắt	-9.55603
▁á	-9.55852
▁nắm	-9.56087
▁cháy	-9.56087
vân	-9.56303
▁"{	-9.56305
nhận	-9.56512
hồng	-9.56529
▁cản	-9.56791
▁trại	-9.56841
▁2000	-9.56854
▁kịp	-9.56855
▁leona	-9.56929
tiệm	-9.57064
▁24	-9.57218
▁m	-9.57361
▁lũ	-9.57381
▁chặt	-9.57596
▁cờ	-9.57607
▁quạt	-9.57609
▁ngồi	-9.57612
▁hiro	-9.57644
tầng	-9.57829
k	-9.57916
}"	-9.58102
.1	-9.58273
▁muội	-9.58359
▁ức	-9.58359
cái	-9.58619
tam	-9.58881
▁16%	-9.59115
▁mạn	-9.59125
▁nàng	-9.5913
▁chứa	-9.5917
▁+25000	-9.59183
▁ngựa	-9.59382
▁hàm	-9.59394
ụ	-9.59434
hẳng	-9.59849
▁tuyến	-9.59913
▁kubo	-9.59943
▁(0/1)	-9.59969
▁nhẹ	-9.60091
ngươi	-9.60154
▁thôn	-9.60204
▁thúy	-9.60244
ưu	-9.60336
▁18%	-9.60521
▁trộm	-9.60692
▁quỹ	-9.60712
▁ước	-9.60728
▁chào	-9.60757
▁ngon	-9.60779
▁120	-9.60911
▁cáo	-9.60913
cường	-9.60965
▁vài	-9.61118
11	-9.61228
▁nửa	-9.61474
▁dừng	-9.61476
▁hơi	-9.61484
▁trăm	-9.61485
▁killer	-9.6153
kháng	-9.6174
▁dấu	-9.61809
ảy	-9.6181
ập	-9.61857
▁thở	-9.62268
▁che	-9.62334
30	-9.62338
▁hung	-9.62348
▁chữa	-9.62447
▁tùng	-9.62448
▁mãi	-9.62494
▁25	-9.62751
▁tú	-9.62835
▁xử	-9.63069
007	-9.63247
thái	-9.63342
▁90	-9.63374
▁na	-9.63499
▁loan	-9.63752
▁lắm	-9.63873
▁gốc	-9.63876
▁mị	-9.63881
▁gi	-9.63939
▁hại	-9.64017
▁hy	-9.6413
▁id	-9.64327
▁150%	-9.64343
▁chạm	-9.64687
▁trăng	-9.64744
chỉ	-9.64975
exp	-9.64978
▁35%	-9.65053
nbảo	-9.65101
▁vội	-9.65506
▁trồng	-9.65512
▁ái	-9.65722
▁hạo	-9.66037
▁trải	-9.66051
▁ngư	-9.66082
▁+7000	-9.66288
▁sôi	-9.66343
▁nghiêm	-9.66353
▁coi	-9.66369
▁(2	-9.66613
tích	-9.66669
▁sửa	-9.66769
▁sẵn	-9.67165
▁điên	-9.67195
▁giày	-9.67549
▁sừng	-9.68019
▁1.5	-9.68093
jump	-9.68318
ngọc	-9.68322
$3	-9.68329
▁9%	-9.68422
▁dậy	-9.68864
▁nhẫn	-9.68882
▁man	-9.68992
▁tựu	-9.69118
tứ	-9.69177
nlinh	-9.69441
▁nhạc	-9.69712
▁diệm	-9.69715
▁70	-9.69806
▁tông	-9.69995
tách	-9.70044
▁xô	-9.70084
▁to	-9.70278
hoa	-9.70483
:%	-9.70559
▁bức	-9.7057
▁tề	-9.70603
▁sóng	-9.70668
▁niệm	-9.70799
20	-9.7089
▁mãn	-9.70927
yêu	-9.71141
nrương	-9.71288
▁stamira	-9.71493
▁tạp	-9.71546
hỏa	-9.71718
▁70%	-9.71737
hoạt	-9.718
▁thiền	-9.72343
cố	-9.72387
▁...""	-9.72575
▁th	-9.72966
▁bốn	-9.732
▁dàng	-9.73202
▁khánh	-9.73211
▁mối	-9.73218
▁tiếc	-9.73228
▁lưỡi	-9.73242
▁400%	-9.73277
▁+0.5%	-9.73324
nđá	-9.73427
mặc	-9.73563
▁ném	-9.73595
▁thuận	-9.74094
▁offline	-9.74102
▁nhặt	-9.74111
▁phiên	-9.74135
▁gas	-9.74186
▁ôn	-9.74314
âm	-9.74884
ao	-9.74944
▁tỏ	-9.74963
▁xúc	-9.75008
▁xấu	-9.75011
▁đợt	-9.75013
▁dành	-9.75028
▁lộc	-9.75117
▁manh	-9.75155
▁0/1	-9.75205
sinh	-9.75374
▁thục	-9.75983
▁bái	-9.76399
▁<<*>/50>/	-9.76402
▁cũ	-9.76696
13	-9.7678
▁mạo	-9.76823
▁nở	-9.76831
▁nguồn	-9.76834
▁thệ	-9.7684
▁tái	-9.7689
]%	-9.76992
......	-9.77103
3,	-9.77295
▁họa	-9.77399
đỏ	-9.77667
tiêu	-9.77682
func	-9.77748
▁+200	-9.77775
▁thuần	-9.77775
▁khúc	-9.77785
▁thước	-9.77815
▁đền	-9.77829
▁đèn	-9.77982
▁24%	-9.77989
▁+2%	-9.78002
xuyên	-9.78151
giáp	-9.78239
▁nỗ	-9.78335
▁chó	-9.78477
</	-9.78536
▁đúc	-9.78695
▁iv	-9.78709
▁thiện	-9.78731
liệt	-9.79095
cực	-9.791
▁gộp	-9.79626
▁sàng	-9.79638
?||(	-9.7965
▁vang	-9.7972
!||	-9.79744
▁leon	-9.79776
ch	-9.80295
▁xưng	-9.80578
▁đẩy	-9.8058
▁tệ	-9.80581
▁5000	-9.80751
▁khích	-9.80766
trân	-9.81014
▁phiêu	-9.81166
thủy	-9.81259
▁hưng	-9.81392
▁chợ	-9.81429
▁miệng	-9.81541
▁tuyên	-9.81557
▁đảm	-9.81608
▁tha	-9.81713
▁17	-9.81821
▁+1500	-9.81932
diệt	-9.81979
▁phán	-9.82216
▁+1	-9.82501
▁mệt	-9.82512
▁trách	-9.82519
▁katius	-9.8257
▁thuyền	-9.82603
nhồn	-9.82777
556	-9.82917
mua	-9.8296
lam	-9.82976
120%	-9.83021
▁tí	-9.83031
▁thờ	-9.83388
▁cận	-9.83491
▁ngốc	-9.83497
▁ngạo	-9.83526
▁dari	-9.83542
trúng	-9.83558
▁ôm	-9.83612
▁khô	-9.83803
cam	-9.83906
▁hạnh	-9.84046
▁<	-9.84154
▁chứ	-9.84197
▁50%,	-9.84376
75%	-9.84431
▁khủng	-9.84481
▁mưa	-9.845
▁lyrd	-9.84526
▁thịt	-9.84569
▁10000	-9.84593
▁vii	-9.84622
▁tô	-9.84691
4)	-9.84818
▁luận	-9.85505
▁250	-9.85786
nsát	-9.85926
▁dạng	-9.8637
▁thăm	-9.86531
▁nhiệt	-9.8655
▁ngọt	-9.86567
▁classnam	-9.86602
▁tràng	-9.86607
▁khinh	-9.86949
huyết	-9.86951
túc	-9.86978
ngũ	-9.87
đã	-9.87
▁lê	-9.87165
▁nương	-9.87515
▁bày	-9.87529
▁varot	-9.87558
▁gai	-9.87576
▁rambo	-9.876
▁dạy	-9.87602
ông	-9.87611
ơ	-9.87627
bạo	-9.87678
trừ	-9.8777
mũ	-9.87906
tương	-9.88016
đóng	-9.88099
,""	-9.88143
▁thua	-9.88514
▁nằm	-9.88542
▁spoby	-9.886
▁thea	-9.88636
3\	-9.88685
▁|	-9.89047
trận	-9.89053
▁khiếu	-9.89584
▁mccartney	-9.89584
▁bệnh	-9.89585
▁mấy	-9.8959
▁+4000	-9.89714
địa	-9.89786
số	-9.89829
▁bối	-9.89961
▁hạc	-9.90012
▁khuôn	-9.90458
▁chấm	-9.90637
▁khẩu	-9.90637
▁say	-9.90703
▁bona	-9.90707
▁1/1	-9.90864
lục	-9.91169
phượng	-9.91173
▁19	-9.91216
▁(1/1)	-9.9171
▁kiêu	-9.91736
▁súng	-9.91743
▁【$1】	-9.91818
▁bác	-9.91837
▁1500	-9.92457
▁dư	-9.92717
▁đích	-9.92777
mở	-9.93053
▁tật	-9.93097
100	-9.93278
▁đả	-9.93283
đại	-9.93332
▁ổn	-9.93429
▁tràn	-9.93478
+$2	-9.93491
▁lỗ	-9.93758
▁lối	-9.93863
▁thoth	-9.93863
▁thố	-9.93867
▁đạp	-9.93877
▁jasmine	-9.93918
▁600%	-9.93958
▁jin	-9.94008
▁trừng	-9.94087
trợ	-9.94431
▁khá	-9.9469
▁khổ	-9.94744
50	-9.94863
▁lỡ	-9.94963
▁nghịch	-9.94966
▁móng	-9.95048
%\	-9.95306
nhất	-9.95321
*	-9.95332
▁pha	-9.95384
▁diêu	-9.95437
<	-9.95466
25	-9.9598
thưởng	-9.96038
▁2.5	-9.9604
▁vốn	-9.96073
▁đẳng	-9.96073
▁ghi	-9.96074
▁hoảng	-9.96193
▁+300	-9.9655
▁bổn	-9.96565
nhưng	-9.96765
▁[%	-9.96802
_1]	-9.97149
▁nã	-9.97163
▁tấm	-9.97196
▁liliaya	-9.97229
▁yugi	-9.97278
▁mây	-9.97293
▁hạch	-9.97397
hóa	-9.9779
▁đô	-9.98009
lần	-9.98177
▁quảng	-9.98205
ăng	-9.98227
▁xưa	-9.98333
▁cưỡi	-9.98333
▁hiển	-9.98374
6.	-9.98895
0/100	-9.99211
▁tro	-9.99291
▁giỏi	-9.99482
▁sấm	-9.99482
▁đạn	-9.99482
▁kêu	-9.99555
▁qu	-9.99574
▁lạp	-9.99675
▁1.5%	-9.99821
ải	-9.99865
vô	-9.99889
▁+1200	-10.0006
.4	-10.0014
▁tù	-10.0041
ntrang	-10.0043
hỗn	-10.0053
▁huấn	-10.0064
▁hận	-10.0064
▁vẽ	-10.0065
▁cẩm	-10.0067
▁vé	-10.0068
▁dục	-10.0069
▁ngàn	-10.0075
▁mèo	-10.0112
14	-10.0124
▁k	-10.0126
liên	-10.0129
▁/	-10.0134
15	-10.0157
▁hẹn	-10.0182
▁nhờ	-10.0182
▁sung	-10.0183
▁choàng	-10.0184
▁23	-10.0206
▁nộp	-10.0207
▁lành	-10.0213
▁ti	-10.0229
▁28%	-10.0232
đá	-10.0241
bạch	-10.0249
▁can	-10.0249
%%	-10.0265
▁cư	-10.0277
▁dựng	-10.0282
▁kỷ	-10.0303
▁buồn	-10.0305
▁thách	-10.0309
▁phất	-10.0313
▁thỏa	-10.0314
▁45%	-10.0327
▁gồm	-10.033
▁hang	-10.0351
!!!	-10.037
▁giấu	-10.0422
▁nát	-10.0423
▁bẫy	-10.0425
▁ớt	-10.0437
▁0.8%	-10.0443
▁gà	-10.0467
kiếm	-10.0474
▁leo	-10.053
▁chằm	-10.0544
▁thiềm	-10.0545
▁kiều	-10.0545
▁ngôn	-10.0548
▁quen	-10.0553
▁chỉnh	-10.0561
▁tr	-10.0598
▁2)	-10.0599
lễ	-10.0614
▁e	-10.0636
tu	-10.0639
▁180	-10.0657
▁alland	-10.0667
▁450	-10.067
▁nạn	-10.0671
▁âu	-10.0673
▁400	-10.068
▁ss	-10.0688
cô	-10.0701
giày	-10.0739
▁68	-10.0743
+2%	-10.0745
!"	-10.0751
▁bồ	-10.0764
▁11%	-10.0786
▁mượn	-10.0792
▁khương	-10.0792
▁gác	-10.0792
▁đấy	-10.0793
▁xứng	-10.0797
;#	-10.0798
▁1:	-10.0801
▁mùi	-10.0815
▁""""	-10.0839
sư	-10.0866
▁bà	-10.0867
vụ	-10.0868
.4:	-10.087
▁99	-10.0891
.1:	-10.0912
.2:	-10.0918
▁liệp	-10.0919
▁dáng	-10.0919
▁bỉ	-10.0923
▁chậm	-10.0927
▁khiển	-10.0931
▁+0.	-10.0941
▁"""	-10.0948
bạn	-10.0994
luyện	-10.0994
▁+120	-10.0997
dấu	-10.1003
_3_	-10.1048
▁điểu	-10.1049
▁ủng	-10.105
▁biên	-10.1052
▁câ	-10.1055
▁ả	-10.1062
▁khoa	-10.1067
▁+60000	-10.1107
triệu	-10.1124
kinh	-10.1124
thất	-10.1131
▁nh	-10.1143
▁cang	-10.1143
l	-10.1157
▁lọ	-10.1164
▁pk	-10.1177
▁chồng	-10.1185
▁xây	-10.1192
▁nhiêu	-10.1193
▁3000	-10.1213
▁nạ	-10.1289
/1	-10.1289
cd	-10.1302
▁muộn	-10.1308
activity	-10.1308
▁hề	-10.1309
▁xương	-10.1309
▁thiểm	-10.1311
▁ngu	-10.1313
▁mỏi	-10.1315
huyễn	-10.1321
▁lông	-10.1328
▁điêu	-10.1361
▁252	-10.1406
▁+600	-10.1408
▁giàu	-10.1445
▁tiar	-10.1456
▁sáo	-10.1457
*4	-10.1462
nbí	-10.1481
4,	-10.1488
▁vịt	-10.1505
j	-10.1517
mê	-10.1525
▁hoành	-10.1544
om	-10.1544
▁cú	-10.1559
▁sáu	-10.1577
▁ấm	-10.1577
▁[$2]	-10.1577
▁rắc	-10.1578
▁thuê	-10.1579
▁rylai	-10.1583
▁pierre	-10.1584
▁bảy	-10.1594
▁22%	-10.1604
▁'	-10.1607
▁phối	-10.1615
nđịa	-10.1618
}!	-10.1646
ấy	-10.1647
chuyển	-10.1661
bách	-10.1661
▁600	-10.1712
▁liễu	-10.1715
ngiảm	-10.1717
▁tri	-10.172
▁(%	-10.173
▁cổng	-10.1746
16	-10.1753
▁(1	-10.1784
]~[	-10.1799
lương	-10.1799
47	-10.1806
tỷ	-10.1807
▁64	-10.1827
▁rậm	-10.1853
▁vxu	-10.1853
▁tiếu	-10.1854
▁hối	-10.1858
▁bấm	-10.186
▁chuông	-10.1862
▁tg	-10.1865
▁lưỡng	-10.1874
▁mông	-10.191
1,	-10.1912
▁cuốn	-10.192
▁thưa	-10.1926
khiến	-10.1941
bát	-10.1942
▁4)	-10.1967
8;	-10.1976
hăm	-10.1981
▁3)	-10.1982
▁gỡ	-10.1994
▁hiên	-10.1995
▁dõi	-10.1995
jc	-10.1995
▁bão	-10.1995
▁xét	-10.1996
▁lòa	-10.1996
▁bụi	-10.1998
▁liliya	-10.2
▁quế	-10.2002
nhoa	-10.2053
hồi	-10.2064
>0/	-10.2075
▁cải	-10.2079
tím	-10.2083
phòng	-10.2083
bóng	-10.2083
chân	-10.2084
xác	-10.2084
▁go	-10.2088
▁48	-10.2102
▁cuộn	-10.2136
▁nuôi	-10.2136
▁dọn	-10.2136
▁hứa	-10.2136
▁vẹn	-10.2136
▁lùng	-10.2137
▁hoại	-10.2138
▁kênh	-10.2139
▁tắt	-10.2147
1"",	-10.215
18;%	-10.2152
▁+3500	-10.2159
▁250%	-10.2169
▁im	-10.217
▁35	-10.2178
▁ấp	-10.2181
▁72	-10.2191
▁túc	-10.2215
6000;	-10.2215
*20	-10.2221
quy	-10.2232
bích	-10.2236
▁+70000	-10.2236
▁cứng	-10.2237
500	-10.2242
▁nghị	-10.2281
▁lớp	-10.2281
param	-10.2281
▁online	-10.2282
▁việt	-10.2284
▁khoái	-10.2287
▁thịnh	-10.2287
6000;%	-10.2289
▁100000	-10.2295
▁khóc	-10.2298
=#	-10.2299
▁mi	-10.2309
▁hoan	-10.2378
▁chim	-10.2386
miễ	-10.2398
▁khăn	-10.2428
▁huân	-10.2428
▁aisha	-10.2434
nhập	-10.2472
▁122	-10.2499
ép	-10.2521
vật	-10.2525
▁hô	-10.2548
▁suối	-10.2578
▁thầm	-10.2578
▁nghỉ	-10.2578
▁yas	-10.2586
=	-10.2586
▁nhiếp	-10.2587
shu	-10.2589
▁nghênh	-10.259
▁túy	-10.2593
name	-10.2594
▁21	-10.2596
]:	-10.2609
▁ph	-10.2617
phi	-10.2627
▁13%	-10.2656
60%	-10.2662
18	-10.2668
ột	-10.2672
hoàn	-10.2688
▁thả	-10.2699
▁đà	-10.2699
iết	-10.2704
ong	-10.2721
▁đấm	-10.2729
▁quẻ	-10.2729
▁kĩ	-10.2729
▁trông	-10.273
nh	-10.2733
▁+200000	-10.2738
▁xảo	-10.2739
+1%	-10.2785
▁khói	-10.2799
):	-10.2801
5%	-10.281
vậy	-10.283
đạo	-10.2848
tỉ	-10.285
▁thơ	-10.2865
或	-10.2883
▁gầm	-10.2883
▁hứng	-10.2883
▁khứ	-10.2883
▁điệu	-10.2883
▁nấu	-10.2885
▁trâm	-10.2885
▁huỳnh	-10.2889
▁đoan	-10.2889
▁kensin	-10.2892
▁sổ	-10.2895
'	-10.2896
▁75	-10.2947
sử	-10.2957
▁bùng	-10.2985
▁lẫ	-10.2989
đây	-10.2992
cũng	-10.2993
▁cặp	-10.3039
▁dày	-10.3039
▁suốt	-10.3039
actid	-10.3039
▁đớn	-10.3039
▁khấu	-10.304
▁vuốt	-10.3042
▁stickman	-10.3042
▁cắt	-10.305
▁map	-10.3054
▁5)	-10.3063
▁350	-10.3082
▁+50%	-10.3089
▁98	-10.3094
▁bén	-10.3097
▁bổng	-10.3105
▁157	-10.3111
-5	-10.3117
▁+10%	-10.3119
▁bi	-10.3132
tấn	-10.3145
▁bộc	-10.3147
chúng	-10.3152
thông	-10.3163
▁+125	-10.3183
gói	-10.3194
▁tươi	-10.3199
▁0.4%	-10.3199
▁thề	-10.3202
▁lung	-10.3202
▁phệ	-10.3209
▁+7200	-10.3214
▁mày	-10.3233
▁50000	-10.3274
▁4000	-10.3275
4%	-10.3303
vượt	-10.3306
▁~	-10.3324
đỉnh	-10.333
750	-10.3336
▁cỏ	-10.3361
▁hoài	-10.3363
▁thỏ	-10.3366
song	-10.3367
▁tám	-10.3383
▁26%	-10.3385
▁giản	-10.339
▁quỳnh	-10.339
▁cục	-10.3394
3%	-10.3398
·5	-10.3405
▁da	-10.3451
▁>	-10.3477
nnhận	-10.3479
rương	-10.3494
·6	-10.3507
▁dặm	-10.3523
▁nhiễm	-10.3523
▁+8000	-10.3523
▁nút	-10.3524
▁dĩ	-10.3524
▁sạch	-10.3524
▁ngâm	-10.3526
▁tiện	-10.3526
▁soái	-10.3527
▁ex	-10.3527
▁ngột	-10.3544
▁500%	-10.3561
▁ốc	-10.3562
▁128	-10.3567
fi	-10.3577
25%	-10.3605
▁sss	-10.3606
$1	-10.3636
trấn	-10.3637
tiểu	-10.3637
▁quỳ	-10.3689
▁ngưỡng	-10.369
▁thiểu	-10.3692
▁sosa	-10.3694
▁(3	-10.3697
▁nauti	-10.3698
▁kẹo	-10.3698
▁"$1	-10.3699
▁náo	-10.3699
▁mãnh	-10.3704
▁bồn	-10.3705
▁trạch	-10.3708
▁《	-10.3717
▁hán	-10.3721
▁45	-10.3722
▁chối	-10.3743
▁xả	-10.3758
▁36%	-10.3763
▁tá	-10.3772
▁chủy	-10.3802
xích	-10.3806
▁+%	-10.3809
▁+40000	-10.3828
ỗi	-10.3841
▁dọa	-10.3859
▁nối	-10.3859
▁đọc	-10.3859
▁luật	-10.3859
▁ngắn	-10.386
▁diều	-10.386
▁sói	-10.386
▁kaka	-10.3861
▁soát	-10.3861
▁npc	-10.3863
hìa	-10.3865
▁hekka	-10.3867
▁răng	-10.3868
ấp	-10.3877
▁+15	-10.3902
▁7.5%	-10.3904
▁+1700	-10.3968
vạn	-10.3979
lực	-10.3979
và	-10.3989
▁6000	-10.401
thường	-10.401
▁1.3	-10.4018
tá	-10.4021
▁khoản	-10.4028
▁+4500	-10.403
▁chước	-10.4032
▁đắc	-10.4032
▁rực	-10.4034
▁wukong	-10.4041
▁thảm	-10.4041
▁hôi	-10.4046
▁15000	-10.4047
▁30000	-10.4055
▁+2250	-10.4057
▁thổi	-10.4074
ăm	-10.4078
▁75%	-10.414
▁sp	-10.4148
quỷ	-10.4154
▁lùi	-10.4207
▁nuốt	-10.4207
▁trinh	-10.4208
▁tặc	-10.4209
▁mồi	-10.4212
▁hát	-10.4212
▁thụy	-10.4221
▁36	-10.4258
▁lộng	-10.4305
您	-10.4316
▁jump	-10.4319
▁ch	-10.4332
toái	-10.4332
nhị	-10.4333
lượt	-10.4333
kiên	-10.4333
choáng	-10.4333
.6	-10.4336
icon	-10.4341
"}}	-10.4357
▁32	-10.4363
15%	-10.4364
▁tẫn	-10.4386
▁miểu	-10.4386
▁ghét	-10.4386
▁lừa	-10.4386
▁tóc	-10.4389
ân	-10.439
▁darek	-10.4394
▁20000	-10.4396
▁mưu	-10.4398
hợp	-10.4399
▁nề	-10.4426
▁}	-10.4429
▁”	-10.4437
▁22	-10.4444
▁tải	-10.4454
hàn	-10.4475
kết	-10.4515
đông	-10.4518
hỉnh	-10.4518
7.	-10.4527
hải	-10.455
▁chén	-10.4568
▁góp	-10.4568
▁rose	-10.4568
▁cưới	-10.4568
skill	-10.457
▁hái	-10.4573
▁cắm	-10.4573
▁sảnh	-10.4579
▁dante	-10.458
▁"“	-10.4595
▁sv	-10.4596
nđồ	-10.4598
+220000	-10.46
▁9000	-10.4603
▁1.1	-10.4624
+5%	-10.4628
▁+3%	-10.4631
▁17%	-10.4652
▁xé	-10.4662
▁thiệu	-10.4689
đuôi	-10.4699
lệnh	-10.47
đặc	-10.47
chọn	-10.47
thật	-10.47
tướng	-10.47
▁lô	-10.472
ntử	-10.4722
▁dò	-10.4731
▁49	-10.4743
▁lầm	-10.4753
▁vỹ	-10.4753
▁sét	-10.4753
▁khuyển	-10.4754
▁nhạo	-10.4754
▁cược	-10.4756
▁đống	-10.4761
▁bật	-10.4763
▁toa	-10.4765
dùng	-10.4771
▁0.5%	-10.4774
▁+75000	-10.478
▁》	-10.4793
▁nhắ	-10.4801
một	-10.4899
▁+1600	-10.4903
000	-10.4906
▁phồn	-10.491
▁+60	-10.4919
nđạo	-10.492
▁dối	-10.4941
▁rắn	-10.4941
▁đầm	-10.4941
='#	-10.4941
▁bụng	-10.4941
▁trật	-10.4942
▁lầy	-10.4942
▁thép	-10.4942
▁rốt	-10.4944
▁mái	-10.4945
▁yểm	-10.4945
▁kíp	-10.4946
#	-10.4946
▁cấu	-10.4949
▁{2}	-10.496
▁21%	-10.497
▁bông	-10.4977
đến	-10.4981
....	-10.4987
▁cai	-10.5011
▁vợ	-10.5013
·8	-10.5034
·7	-10.5062
-6	-10.5063
▁85	-10.5074
sách	-10.5081
▁chủng	-10.5084
10%	-10.5108
nphi	-10.5117
▁dứt	-10.5134
▁nguyền	-10.5134
▁nhọn	-10.5134
▁duệ	-10.5134
服务	-10.5134
▁[221]	-10.5135
▁nhuệ	-10.5136
▁bế	-10.5137
▁vưu	-10.5138
▁khát	-10.5139
▁trương	-10.514
▁xưởng	-10.5144
+10%	-10.5149
tật	-10.5153
ồ	-10.5154
▁19%	-10.5163
▁$4	-10.5174
0)	-10.5185
▁+5%	-10.527
▁140%	-10.5274
thiết	-10.5277
thành	-10.5286
9\	-10.53
▁mỏ	-10.5301
▁240	-10.5313
▁kệ	-10.533
5)	-10.5331
▁lọc	-10.5336
(%	-10.5337
▁ngào	-10.5338
▁vời	-10.5338
▁cơm	-10.5346
5,	-10.5411
▁ngang	-10.5442
"\	-10.5445
niệm	-10.5477
bxh	-10.5477
tuyết	-10.5477
▁giam	-10.5482
▁sí	-10.5498
▁2.3	-10.5509
▁à	-10.5517
...""	-10.5521
̀n	-10.5522
▁thự	-10.5528
▁loài	-10.553
▁quấn	-10.553
▁bớt	-10.5536
▁vai	-10.554
▁chán	-10.5543
用户	-10.5546
▁trục	-10.5547
đan	-10.5551
▁gãy	-10.5553
tên	-10.5559
·4	-10.5563
▁đón	-10.5565
7.5%	-10.5583
▁màn	-10.5637
để	-10.5681
2%	-10.5683
dị	-10.5684
vào	-10.5692
250	-10.5734
▁chém	-10.5734
▁trọt	-10.5734
▁dội	-10.5734
▁tẩu	-10.5734
▁mân	-10.5735
▁đẫm	-10.5735
▁144	-10.5735
▁chìm	-10.5738
▁tia	-10.5739
▁90%	-10.5755
▁+1.5%	-10.5765
▁+20%	-10.5783
▁hè	-10.5806
ởi	-10.5826
▁69	-10.5831
:<<*>/100>/	-10.5835
cross	-10.5836
6,	-10.5887
【%	-10.589
45	-10.5891
▁56	-10.5905
▁62	-10.5911
▁kê	-10.5941
▁ðức	-10.5942
pos	-10.5942
▁05:00	-10.5943
▁ung	-10.5946
▁trào	-10.5952
▁ỷ	-10.5954
thế	-10.5956
▁thối	-10.5963
2"",	-10.598
||	-10.5983
.7	-10.5984
ạm	-10.6054
▁58	-10.6063
▁trú	-10.6064
▁nan	-10.6086
▁tảng	-10.6089
-7	-10.6101
diện	-10.6102
nhiệm	-10.6102
nạp	-10.6102
▁bờ	-10.6104
▁ngả	-10.6127
+5	-10.6128
▁gan	-10.613
▁dụ	-10.6139
▁chư	-10.615
▁khéo	-10.6155
▁nứt	-10.6155
▁đựng	-10.6155
▁sóc	-10.6159
▁cập	-10.6168
▁328	-10.6173
▁đinh	-10.6173
ntu	-10.6185
nné	-10.6193
▁đáy	-10.62
+1	-10.6222
+10	-10.623
40	-10.6271
▁3.5	-10.6284
uổi	-10.6287
uồng	-10.6296
▁cm	-10.6296
."""	-10.6303
▁2.5%	-10.6306
phản	-10.6319
mục	-10.6319
knb	-10.6321
▁tuế	-10.6322
tôi	-10.6324
làm	-10.6325
sao	-10.6333
▁28	-10.6366
▁+2	-10.6367
20%	-10.6372
▁trắc	-10.6373
▁chuyến	-10.6373
▁góc	-10.6373
▁đùa	-10.6374
▁xoay	-10.6375
õi	-10.6376
▁khuynh	-10.6377
ntrong	-10.6377
▁+30	-10.638
▁rung	-10.6381
con	-10.6382
▁4.5%	-10.6385
▁cắp	-10.6393
▁+30%	-10.6401
quà	-10.6402
dung	-10.6409
▁hđ	-10.642
▁160%	-10.6442
▁648	-10.6446
▁0.5	-10.6451
在	-10.6482
9;	-10.65
*6	-10.651
▁ngoan	-10.6517
200	-10.6528
▁cỗ	-10.654
▁nhẹn	-10.6541
gồm	-10.6541
được	-10.6542
đừng	-10.6542
cuồng	-10.6543
diệu	-10.6544
cầu	-10.6547
+3%	-10.6547
đai	-10.6549
bồng	-10.6552
▁198	-10.6555
▁288	-10.658
▁nấm	-10.6595
▁nhát	-10.6595
▁xắc	-10.6596
▁chuột	-10.6597
▁xoa	-10.6597
▁+45000	-10.6598
▁+36000	-10.66
▁bia	-10.6601
▁nảy	-10.6601
▁sân	-10.6603
▁0.6%	-10.6607
▁ni	-10.6623
▁tết	-10.6624
▁môi	-10.6633
▁trà	-10.6648
ật	-10.6683
▁nhã	-10.6685
▁bồng	-10.669
▁+3	-10.6697
▁ổ	-10.6701
ốc	-10.6709
▁va	-10.671
▁65	-10.6723
ha	-10.6735
▁55	-10.6745
-8	-10.6763
.8	-10.6768
tọa	-10.6769
khảm	-10.6769
bắc	-10.6769
chính	-10.677
chúc	-10.6771
▁(6	-10.6786
▁mỗ	-10.6811
▁gỗ	-10.6822
▁triệt	-10.6822
▁uyển	-10.6823
▁lánh	-10.6825
▁trùm	-10.6825
▁1200	-10.6826
▁trói	-10.6828
▁tát	-10.683
00)	-10.683
▁jana	-10.6832
▁cừu	-10.6833
和	-10.6836
▁vãng	-10.684
▁sông	-10.6841
▁76	-10.6843
các	-10.6853
·3	-10.6859
▁240%	-10.6868
▁32%	-10.6882
+20	-10.6908
50%	-10.6913
nhìn	-10.6917
▁chín	-10.693
*2,	-10.6951
ính	-10.6968
▁khuất	-10.7001
nhật	-10.7002
▁2.1	-10.7003
·2	-10.7013
0000>	-10.7017
úa	-10.7026
2000	-10.7029
vàng	-10.7032
▁lò	-10.7035
▁lẻ	-10.7052
▁nghiên	-10.7054
show	-10.7054
▁ưng	-10.7054
▁quyên	-10.7055
▁gấu	-10.7055
▁vững	-10.7055
▁chuồn	-10.7056
▁gương	-10.7057
▁160	-10.7059
▁3.5%	-10.7063
▁95	-10.7071
▁88	-10.7078
19	-10.7082
▁cức	-10.7085
!"""	-10.709
▁52	-10.7092
▁cà	-10.7192
▁54	-10.7203
$2	-10.7205
tuần	-10.7239
▁800	-10.7257
gia	-10.7292
▁afk	-10.7293
▁hẳn	-10.7293
▁lấn	-10.7293
▁ngại	-10.7293
▁+240	-10.7293
▁khuyên	-10.7293
▁triết	-10.7293
▁noãn	-10.7294
▁giường	-10.7295
▁bút	-10.7298
ffff	-10.7305
▁ae	-10.7306
giáng	-10.7332
*30	-10.7334
lan	-10.7346
▁nhai	-10.7348
▁#	-10.7354
wa	-10.7361
▁nô	-10.7372
▁lồng	-10.7401
▁96	-10.7408
▁78	-10.7447
▁ro	-10.7458
".	-10.7466
khó	-10.7477
+0.	-10.7479
ấu	-10.7482
》	-10.7483
tình	-10.7483
nguyệt	-10.7483
tiến	-10.7488
xuất	-10.7489
):\	-10.7518
đồng	-10.753
▁kị	-10.7531
▁oán	-10.7533
▁lăn	-10.7536
▁dimgar	-10.7536
▁trượt	-10.7536
▁đẩu	-10.7537
▁phiền	-10.7537
▁airland	-10.7537
▁cưỡng	-10.7537
ống	-10.7539
▁+80000	-10.7542
▁uẩn	-10.7548
▁25000	-10.7552
dao	-10.7554
▁26	-10.7562
▁thải	-10.7563
▁+4%	-10.7581
▁(8	-10.7591
▁non	-10.7593
▁999	-10.76
▁27%	-10.7621
▁}{	-10.7637
▁kí	-10.764
▁(5	-10.7648
rút	-10.7651
+34000	-10.7668
+25	-10.7693
ã	-10.7696
+15	-10.7696
▁1600	-10.77
shop	-10.7733
miêu	-10.7736
bảng	-10.7737
▁59	-10.7739
00;	-10.7744
60	-10.7767
▁1-	-10.7776
như	-10.7777
▁{0}{1}	-10.7786
一	-10.7786
title	-10.7786
▁mẫu	-10.7786
▁mâu	-10.7787
▁tiệt	-10.7787
▁viết	-10.779
▁nash	-10.7791
▁kình	-10.7792
▁($1/$2)	-10.7797
▁khang	-10.7801
▁bùa	-10.7814
▁luyến	-10.7814
▁ngực	-10.7818
16%	-10.7837
▁ngất	-10.7881
úp	-10.7885
▁sợi	-10.7889
68	-10.7905
ntham	-10.7913
▁+5%\	-10.7967
thương	-10.799
phù	-10.7991
siêu	-10.7992
▁lẫn	-10.7994
3"",	-10.8006
tất	-10.8033
▁[$1]	-10.8043
▁lén	-10.8043
▁khiếp	-10.8043
ark	-10.8043
▁lisa	-10.8044
▁nhạn	-10.8045
▁test	-10.8048
▁đạm	-10.8054
24	-10.8055
▁chàng	-10.8055
▁{0}/{1}	-10.8059
▁khốc	-10.8063
▁kita	-10.8065
▁syn	-10.8065
▁táo	-10.8071
▁86	-10.8079
nbộ	-10.8089
)+	-10.8108
bị	-10.8114
+[	-10.8115
nsố	-10.8133
▁ho	-10.8134
nhoàng	-10.814
▁43	-10.8218
▁29	-10.8224
đó	-10.8231
gua	-10.8235
▁hừ	-10.8241
使用	-10.825
kỳ	-10.8253
▁280	-10.826
sự	-10.8263
th	-10.8289
▁110	-10.8299
▁cạn	-10.8303
有	-10.8306
▁noel	-10.8306
▁phỉ	-10.8306
▁sướng	-10.8308
▁ngơi	-10.8309
▁tấu	-10.8312
ùng	-10.8312
▁kém	-10.8312
▁nạt	-10.8312
em	-10.8318
▁74	-10.832
▁thùy	-10.834
▁mọc	-10.8341
fe	-10.8349
▁1000%	-10.8351
nhữ	-10.8377
▁1.2	-10.8379
▁||	-10.838
▁nang	-10.8381
bảo	-10.8386
ntrúng	-10.8412
▁84	-10.8442
▁38%	-10.8448
ác	-10.8485
▁$1,	-10.8493
▁(1/	-10.8497
等	-10.8512
là	-10.8516
kịch	-10.8523
trạc	-10.8523
cương	-10.8524
đầu	-10.8529
▁chiế	-10.8546
▁nhan	-10.8548
]%,	-10.855
nnhân	-10.8553
▁khốn	-10.8554
▁vờ	-10.8567
▁tần	-10.8575
hổ	-10.8576
▁héo	-10.8576
▁thưởng	-10.8576
▁đọa	-10.8576
▁vault	-10.8576
▁thét	-10.8576
▁mạt	-10.8576
▁mễ	-10.8577
▁tòa	-10.858
hệ	-10.858
ffb	-10.8593
▁+250000	-10.8593
▁dịu	-10.8599
6}	-10.86
6%	-10.8622
▁lệch	-10.8642
▁bùn	-10.8646
võ	-10.8656
trảm	-10.8658
tham	-10.8662
nkhí	-10.8675
▁hò	-10.8687
”.	-10.871
▁quê	-10.8717
nbị	-10.8721
0%	-10.873
▁130	-10.8735
,”	-10.8736
des	-10.8759
35%	-10.8764
▁(4	-10.8777
▁7000	-10.8782
đế	-10.8796
cần	-10.8801
đúng	-10.8801
định	-10.8801
tại	-10.8801
▁79	-10.8821
▁san	-10.8837
▁mờ	-10.8844
nói	-10.8845
如	-10.8846
▁+1875	-10.8853
法	-10.8854
text	-10.8854
▁cskh	-10.8854
▁(1/10)	-10.8854
▁tháo	-10.8857
wu	-10.8865
er	-10.887
6)	-10.8896
▁140	-10.8904
▁ván	-10.8907
▁63	-10.891
▁(%)	-10.8912
21	-10.8913
▁bàng	-10.8915
▁thang	-10.8921
23	-10.8929
27	-10.895
▁nhàng	-10.8966
.6:	-10.897
ở	-10.8987
信息	-10.9005
▁chôn	-10.9021
▁73	-10.9025
7)	-10.9055
我们	-10.9077
2}	-10.9084
—	-10.9085
quỳnh	-10.9086
triều	-10.9087
nhấn	-10.9104
▁23%	-10.9107
||(	-10.9108
▁4500	-10.9129
*15	-10.9135
level	-10.914
▁nhiễu	-10.914
▁5.5%	-10.914
▁rủa	-10.9141
▁3.0%	-10.9141
▁rửa	-10.9141
▁diên	-10.9141
▁tý	-10.9142
▁nghiện	-10.9142
▁tiêm	-10.9145
▁520	-10.9147
▁cháu	-10.9148
70	-10.915
▁thơm	-10.9154
▁turko	-10.9158
▁sâm	-10.9161
▁sụ	-10.9162
▁700	-10.9163
▁tảo	-10.9164
▁ơi	-10.9173
dc	-10.9189
▁đảng	-10.9204
▁44	-10.9226
▁67	-10.923
"".	-10.9248
▁66	-10.9257
▁co	-10.9266
ẫm	-10.9273
▁40000	-10.9277
22	-10.9278
80	-10.9283
▁hoá	-10.9301
▁khe	-10.9304
▁run	-10.9331
30%	-10.9339
▁ngón	-10.9352
hiếm	-10.9364
+%	-10.937
▁38	-10.9377
xin	-10.9381
tỏa	-10.9381
khiên	-10.9381
lăng	-10.9382
phục	-10.9386
▁oanh	-10.9395
▁hố	-10.9396
与	-10.9433
▁bữa	-10.9434
▁phẫ	-10.9434
▁xỉ	-10.9435
▁mark	-10.9435
▁qian	-10.9438
▁điềm	-10.9439
▁nấp	-10.9439
▁đậu	-10.944
▁00:00	-10.9442
▁bẩn	-10.9443
▁dắt	-10.9445
▁tráng	-10.9447
▁hãn	-10.9448
▁đàm	-10.9449
▁chổi	-10.9451
▁vã	-10.9452
▁tồi	-10.9459
seq	-10.9468
hiện	-10.9479
▁xinh	-10.9481
▁bùm	-10.9493
▁1800	-10.9549
38	-10.9552
▁than	-10.9557
▁42	-10.9577
▁+12	-10.9579
▁182	-10.9603
35	-10.9604
8}	-10.9609
1000	-10.9612
nknb	-10.9624
本	-10.9636
hênh	-10.9643
▁00	-10.9646
00;%	-10.9673
hằng	-10.9684
còn	-10.9684
thâm	-10.9684
▁87	-10.9689
ỗng	-10.9696
1""},	-10.9699
hốt	-10.9703
sương	-10.9704
▁1-3	-10.9733
njia	-10.9737
▁duẫn	-10.9737
▁lặp	-10.9737
▁nhầm	-10.9737
▁phàn	-10.9737
▁liều	-10.9737
▁nướng	-10.9738
▁múa	-10.9738
▁găm	-10.9738
▁rỡ	-10.974
▁+80	-10.974
▁chóc	-10.9743
▁15.0%	-10.9743
▁dâng	-10.9746
▁10.0%	-10.975
▁mịch	-10.9755
▁trích	-10.9755
▁34	-10.9756
3120	-10.9763
▁+2.5%	-10.9778
▁(0/10	-10.9803
""},{	-10.9811
】}	-10.9824
?{	-10.9825
36	-10.9831
8;%	-10.9845
tự	-10.9857
▁77	-10.9862
hút	-10.9871
+50000	-10.9872
▁{0}:	-10.9875
)","	-10.9898
ếm	-10.9904
▁mò	-10.991
▁8000	-10.9923
ánh	-10.994
▁93	-10.9944
▁92	-10.9972
▁miên	-10.9975
chấn	-10.9996
đằng	-10.9996
truyền	-10.9996
$4	-11
dương	-11.0003
nghiệp	-11.0013
▁12000	-11.0023
tụ	-11.0035
875	-11.0037
▁nghê	-11.0049
▁nghìn	-11.0049
▁nắng	-11.0049
▁tắm	-11.0049
_4_	-11.0049
▁chiều	-11.005
▁0.2%	-11.005
▁nhện	-11.005
▁ngụy	-11.0052
▁heo	-11.0055
▁thẩm	-11.0056
7}	-11.0064
▁【$2】	-11.0066
▁+24000	-11.0069
▁280%	-11.0076
▁56%	-11.0086
▁+5	-11.0117
▁1.2%	-11.0129
▁71	-11.013
▁phác	-11.0179
phụ	-11.0185
!||(	-11.0201
▁lẩ	-11.0206
êm	-11.0226
(50	-11.023
▁168	-11.0244
▁hèn	-11.0263
▁2400	-11.0284
át	-11.0292
tổ	-11.0298
oản	-11.0302
3}	-11.0304
《	-11.0312
ọi	-11.0315
quốc	-11.0319
đấu	-11.0321
nđỉnh	-11.0323
mốc	-11.033
đào	-11.0331
▁thản	-11.0339
▁ao	-11.0342
▁39	-11.0362
▁đóa	-11.0367
▁mầm	-11.0372
▁mẫn	-11.0372
▁mềm	-11.0372
▁phước	-11.0372
▁+1338	-11.0372
▁móc	-11.0373
▁pve	-11.0375
▁rãi	-11.0376
nhạ	-11.0379
▁bãi	-11.038
▁tàu	-11.0388
danh	-11.0408
uông	-11.0421
▁+100%	-11.0435
-11	-11.0437
▁34%	-11.0463
▁túng	-11.0464
▁lũng	-11.0469
▁toái	-11.0471
▁4.3	-11.0472
be	-11.0482
ờ	-11.0483
100/100	-11.0485
thức	-11.0508
hồ	-11.0532
{0}	-11.054
▁217	-11.0572
▁83	-11.0591
pháo	-11.0606
la	-11.0607
98	-11.0641
vip	-11.0652
branium	-11.0652
▁60000	-11.0655
▁ồ	-11.0658
▁thê	-11.066
▁900	-11.0666
▁+400	-11.0676
▁lyn	-11.0681
▁khoá	-11.0684
đánh	-11.0689
▁mì	-11.0705
▁tuấn	-11.0705
▁huệ	-11.0705
▁nghiền	-11.0705
scene	-11.0705
▁khế	-11.0706
▁lắc	-11.0706
▁tị	-11.0706
▁tuệ	-11.0706
▁chùa	-11.0707
▁khiết	-11.0708
▁chừng	-11.0709
▁rác	-11.0709
▁bì	-11.071
▁bẩm	-11.071
▁điền	-11.0711
▁bóp	-11.0711
+129600	-11.0717
▁hân	-11.072
▁180%	-11.072
▁khụ	-11.0722
▁bân	-11.073
▁đành	-11.0738
;3	-11.074
▁hống	-11.0742
▁$2,	-11.0753
▁108	-11.076
7%	-11.077
ời	-11.0775
▁ty	-11.0782
tường	-11.0786
0.8%	-11.0794
▁+1000,	-11.0804
▁2500	-11.081
▁dỗ	-11.0823
▁0:00	-11.0826
▁82	-11.0826
ủy	-11.0841
0}	-11.0844
▁mòn	-11.0856
ăn	-11.0885
tà	-11.0897
▁rau	-11.0941
-10	-11.0944
▁chì	-11.096
▁80000	-11.0963
1%	-11.097
lưỡng	-11.0997
thiếu	-11.0997
quyết	-11.0997
mặt	-11.0997
chưởng	-11.0998
▁+9	-11.1001
▁bó	-11.1013
-$1	-11.1034
▁vườn	-11.1034
▁tò	-11.1046
45%	-11.1046
▁khỏe	-11.105
▁mươ	-11.105
▁phức	-11.105
▁thèm	-11.105
▁nến	-11.105
▁đoái	-11.105
▁+6200	-11.105
▁nhỉ	-11.105
▁cẩu	-11.1051
▁ninh	-11.1051
▁nghiễ	-11.1051
▁pb	-11.1052
▁chụ	-11.1052
▁huống	-11.1054
▁dốc	-11.1054
▁7-9	-11.1055
_3]	-11.1056
▁não	-11.1058
▁dinh	-11.106
▁bơi	-11.1063
:${	-11.1076
▁+1000000	-11.1078
▁muô	-11.1079
▁bom	-11.1085
▁3.6%	-11.109
▁2.2	-11.1094
▁câm	-11.1107
▁81	-11.1122
94	-11.1123
▁đáo	-11.1136
▁trán	-11.1138
▁(1)	-11.1145
9}	-11.1145
▁27	-11.1151
▁(10%	-11.1199
▁33	-11.1199
▁230	-11.12
4}	-11.1205
▁khen	-11.1216
▁ló	-11.1268
:3.	-11.1274
▁89	-11.1274
▁xá	-11.1283
77	-11.1298
dạ	-11.1306
▁94	-11.1307
▁50%.	-11.1311
▁(2)	-11.1322
▁+140	-11.1325
mã	-11.1328
▁57	-11.135
chà	-11.1351
tặng	-11.1354
đổi	-11.1354
đạt	-11.1354
vương	-11.1355
thăng	-11.1355
▁18000	-11.1358
ỏ	-11.1362
hạo	-11.1376
▁trư	-11.138
tẩy	-11.1386
▁+18	-11.1389
!!	-11.1392
▁ngạn	-11.1404
▁nhục	-11.1407
▁chép	-11.1408
▁giật	-11.1408
▁châm	-11.1409
▁rợ	-11.141
▁thiến	-11.141
▁gậy	-11.1412
▁hời	-11.1415
▁+3800	-11.1416
1}	-11.1417
▁+12000	-11.1418
▁675	-11.1421
▁jane	-11.1422
▁aron	-11.1422
▁360	-11.1433
gợi	-11.1435
▁hâm	-11.1438
▁zhirek	-11.144
▁bệ	-11.1445
*9	-11.1453
ai	-11.1458
4"",	-11.1459
▁quất	-11.1465
/3	-11.1473
▁||(	-11.148
400	-11.1485
▁48%	-11.1495
▁24000	-11.1495
cha	-11.1501
hấp	-11.1503
▁hu	-11.1507
▁đuôi	-11.1513
iề	-11.1525
▁33%	-11.1529
▁+653	-11.153
ntự	-11.157
hoàng	-11.1583
đa	-11.1599
▁thô	-11.1608
31	-11.1616
nquà	-11.1638
▁{{"	-11.1668
29	-11.1717
时	-11.1719
▁232	-11.1723
loại	-11.1725
chuẩn	-11.1725
vì	-11.1725
điều	-11.1725
cứu	-11.1725
mộng	-11.1743
69	-11.1748
sẽ	-11.1752
▁rồ	-11.1756
sơn	-11.1764
chu	-11.1769
开发者	-11.1777
网	-11.1778
定	-11.1778
▁bò	-11.1778
▁bọc	-11.1778
▁giếng	-11.1778
▁thẳm	-11.1778
▁vẫy	-11.1778
▁vỗ	-11.1778
▁dẹp	-11.1778
▁nhưỡng	-11.1778
▁matt	-11.1778
▁trôi	-11.1778
人	-11.1778
▁+1750	-11.1778
▁nghiệt	-11.1779
▁hoãn	-11.1782
óc	-11.1783
18;	-11.1788
▁halloween	-11.1789
82%	-11.1802
▁nhấp	-11.1812
▁3600	-11.1812
▁sen	-11.1819
▁nông	-11.1827
▁hạp	-11.1831
65%	-11.1836
▁+20	-11.1858
▁4.5	-11.1873
ncàn	-11.1882
49	-11.1891
▁61	-11.1898
28	-11.1913
76	-11.1914
▁st	-11.1916
▁750	-11.1919
ảm	-11.1929
▁4.1	-11.1935
▁khỉ	-11.1936
76000	-11.1938
hỗ	-11.1967
khí	-11.197
õ	-11.1978
9%	-11.1978
nnhập	-11.199
▁192	-11.1992
88	-11.1998
▁53	-11.2038
.9	-11.2076
▁cóc	-11.2093
{1}	-11.2094
——	-11.2106
jin	-11.2108
buff	-11.2109
kẻ	-11.2109
+1.5%	-11.211
dịch	-11.2112
cảm	-11.2113
xem	-11.2114
.25%	-11.2121
ạ	-11.2134
▁216	-11.2148
hồn	-11.2149
uýt	-11.216
及	-11.2162
对	-11.2162
▁miếng	-11.2162
▁21:00	-11.2163
▁neo	-11.2164
▁ủi	-11.2167
17	-11.2168
▁sánh	-11.217
▁dập	-11.2176
▁vải	-11.2179
▁thính	-11.2183
.75%	-11.2184
▁97	-11.2194
▁buu	-11.2204
▁bột	-11.2282
▁91	-11.2298
nngư	-11.2306
39	-11.2325
▁"1.	-11.2343
nhuyễn	-11.2362
▁+10	-11.2362
0%\	-11.237
bí	-11.2371
cơ	-11.2371
74	-11.2374
▁2-3	-11.2379
hoang	-11.2381
hào	-11.2399
▁lộn	-11.241
chí	-11.2418
ẩn	-11.2422
67	-11.2444
2.5%	-11.2447
khu	-11.2485
ster	-11.25
-16	-11.2507
trọng	-11.2509
trước	-11.2509
này	-11.2509
tranh	-11.2509
viêm	-11.251
nhanh	-11.2512
khống	-11.2517
nghe	-11.2522
37	-11.2522
đang	-11.2536
giang	-11.2547
▁chò	-11.2562
▁guikui	-11.2562
▁handel	-11.2562
▁hựu	-11.2562
▁tấc	-11.2562
▁ðình	-11.2562
▁nồng	-11.2562
▁(1/5)	-11.2563
▁xoáy	-11.2563
▁thọ	-11.2566
▁[$1]$2	-11.2566
▁lơ	-11.2567
▁trác	-11.2569
ững	-11.2581
▁reywin	-11.2583
▁mão	-11.2587
▁800%	-11.2588
▁4-6	-11.2594
800	-11.2596
▁lau	-11.2612
nhà	-11.2624
▁cành	-11.2625
▁29%	-11.2626
▁mo	-11.2649
hiệp	-11.2652
▁o	-11.2681
▁thùng	-11.2681
thí	-11.27
26	-11.27
▁+1.	-11.2706
方	-11.2727
575	-11.273
▁[5	-11.2745
▁4.2	-11.2746
0%+10000	-11.2752
▁31	-11.2758
▁47	-11.2769
▁đê	-11.2771
*100	-11.2776
▁(3)	-11.2784
.4%	-11.2794
▁[6	-11.2811
5}	-11.2832
▁{0}!	-11.2873
nvà	-11.2891
▁+160	-11.2901
▁sốt	-11.2901
▁45000	-11.2904
▁+26	-11.2913
?"	-11.2922
medi	-11.2926
lịch	-11.2926
dũng	-11.2926
quân	-11.2926
với	-11.2927
bánh	-11.2929
chưa	-11.293
▁460	-11.293
▁4800	-11.2931
+4%	-11.2932
▁mao	-11.2951
▁+700	-11.2952
▁thoả	-11.2957
5200	-11.2962
▁""...	-11.2968
用	-11.2969
75	-11.2971
ực	-11.2978
▁bạt	-11.2979
▁diablo	-11.2979
▁yamashita	-11.2979
▁trữ	-11.2979
▁gieo	-11.2979
▁mỉ	-11.2979
▁chở	-11.2979
▁hủ	-11.298
▁mắc	-11.298
▁nháy	-11.298
ies	-11.298
▁vượng	-11.298
▁nhạt	-11.298
▁0.0	-11.298
▁vika	-11.2981
▁mụ	-11.2981
▁quặng	-11.2982
▁thạo	-11.2985
▁700%	-11.2987
▁bã	-11.2988
▁hot	-11.2997
▁ki	-11.302
ec	-11.3021
+300%	-11.3032
nkiếm	-11.3038
▁hưu	-11.3045
▁46	-11.3056
▁—	-11.3059
▁ách	-11.3073
ớt	-11.3113
36%	-11.3125
▁tơ	-11.3135
▁41	-11.3154
nami	-11.3155
▁bền	-11.3159
40%	-11.3168
=2,	-11.3173
0000	-11.32
đồ	-11.3208
▁kín	-11.3215
▁thiêng	-11.3225
▁(1/7	-11.3239
625	-11.324
▁bề	-11.3242
=7	-11.3245
-%	-11.3246
hạng	-11.3258
ái	-11.3285
▁200000	-11.3291
▁nhắn	-11.3298
▁+3200	-11.3301
▁+15%	-11.3327
▁(1/20	-11.3335
▁họng	-11.3351
hạn	-11.3353
chế	-11.3358
ngoại	-11.3361
trí	-11.3361
treo	-11.3362
truy	-11.3362
▁51	-11.339
▁260	-11.3395
▁củ	-11.34
▁vả	-11.3402
ầy	-11.3402
▁+37500	-11.3411
设	-11.3413
0%+4000	-11.3413
注	-11.3413
上	-11.3414
▁high	-11.3414
▁hầm	-11.3414
0%+9000	-11.3414
收	-11.3414
▁loạt	-11.3414
0%+8000	-11.3414
▁khâu	-11.3414
▁gíac	-11.3414
▁trạm	-11.3415
▁nghiêng	-11.3415
▁râu	-11.3416
▁dơi	-11.3416
▁0.7%	-11.3416
▁chớp	-11.3417
▁vòm	-11.3419
▁(1/3)	-11.3419
▁trọc	-11.342
▁khanh	-11.3421
▁gắn	-11.3421
▁0.1%	-11.3431
info	-11.3431
400;%	-11.3434
▁${	-11.3438
不	-11.3438
▁thoảng	-11.344
375	-11.3446
▁cay	-11.345
lá	-11.3462
▁+7500	-11.3462
▁mỏng	-11.3465
tàn	-11.3483
▁hám	-11.3484
0000>1	-11.3485
▁+150000	-11.3486
:{0}	-11.3492
nvô	-11.3501
0%+5000	-11.3528
▁110%	-11.3528
▁si	-11.354
▁178	-11.3548
ba	-11.3591
-15	-11.3594
44	-11.3612
-13	-11.3614
▁37	-11.3615
▁<<*>/50>/6	-11.365
0%+3000	-11.3678
▁+230	-11.3704
.6%	-11.3715
▁phim	-11.3718
33%	-11.3725
0%+2000	-11.3735
/2	-11.3752
mộ	-11.3789
miller	-11.3815
hậu	-11.3815
chuyện	-11.3815
sức	-11.3815
tìm	-11.3815
thay	-11.3815
theo	-11.3816
+2.5%	-11.3817
mùa	-11.3818
chết	-11.3819
sa	-11.3824
/4	-11.3825
đội	-11.3834
bồ	-11.3848
▁$1/$2	-11.3857
nội	-11.3858
tuy	-11.3863
提供	-11.3864
0%+7000	-11.3867
→	-11.3868
:<<*>/50>%/10	-11.3868
▁ghế	-11.3868
▁hiếu	-11.3868
▁kahn	-11.3868
▁lỏng	-11.3868
▁ngầm	-11.3868
▁ngắm	-11.3868
▁úy	-11.3868
▁nvhn	-11.3868
▁rụng	-11.3868
▁kiểu	-11.3868
▁mực	-11.3869
▁quật	-11.3869
▁huyên	-11.387
▁xướng	-11.387
▁erens	-11.3872
▁ngõ	-11.3873
▁mập	-11.3873
▁lầu	-11.3876
▁tủy	-11.3878
▁hở	-11.3881
▁liukang	-11.3885
▁190	-11.3885
▁phil	-11.3886
chú	-11.3889
▁---	-11.3892
▁ngạch	-11.3892
▁raiken	-11.3892
nthôn	-11.3898
▁sầu	-11.391
70%	-11.3914
▁xx	-11.3921
▁chua	-11.393
▁bú	-11.3933
;2}	-11.3937
▁óc	-11.3937
5"",	-11.3949
▁65%	-11.397
中	-11.3974
nmở	-11.4
▁..."	-11.4
▁thoa	-11.4
ra	-11.4008
950	-11.4023
700	-11.4028
tốc	-11.4029
8000	-11.4031
02	-11.4048
▁cáp	-11.4053
▁côi	-11.4062
5000	-11.4073
ện	-11.4137
xiếc	-11.414
top	-11.4155
▁rộ	-11.4181
▁70000	-11.4186
us	-11.4205
0%+6000	-11.4215
▁bỏng	-11.4224
▁+56	-11.4225
42	-11.4225
32	-11.4248
▁tụng	-11.4275
8,	-11.4276
hùng	-11.429
luyến	-11.4291
classnam	-11.4291
【$1】	-11.4291
kiệt	-11.4291
mỹ	-11.4291
victoria	-11.4291
lớn	-11.4292
▁1280	-11.4292
mộc	-11.4293
khôi	-11.4293
phúc	-11.4295
nhoàn	-11.4302
sóng	-11.431
66	-11.431
re	-11.4332
▁lờ	-11.4336
-9	-11.4342
条	-11.4343
据	-11.4344
权	-11.4344
取	-11.4344
发	-11.4344
▁cậy	-11.4344
▁vọt	-11.4344
▁watts	-11.4344
▁bục	-11.4344
▁ghen	-11.4344
▁9.5%	-11.4345
▁kai	-11.4345
▁0.3%	-11.4347
▁chướng	-11.4347
▁hỷ	-11.4348
▁diệc	-11.4349
▁rỗng	-11.4354
▁khấp	-11.4355
▁pet	-11.4356
▁mắng	-11.4357
ri	-11.4364
▁4-10	-11.4366
▁(1/200	-11.4375
▁lẽo	-11.4376
59	-11.438
this	-11.438
li	-11.4383
ncho	-11.4388
red	-11.4391
ô	-11.4396
▁52%	-11.4411
-12	-11.4425
▁220%	-11.4431
▁1.6%	-11.4434
9)	-11.4443
▁ôi	-11.4468
▁1000000	-11.4473
iêm	-11.4477
iếc	-11.448
▁+15%\	-11.449
8)	-11.4494
'>	-11.4499
78	-11.4536
▁tủ	-11.4549
+2	-11.4567
▁lướ	-11.4586
slần	-11.4595
219	-11.4601
ốt	-11.4621
▁nôn	-11.4627
cá	-11.4627
125	-11.4638
▁(1/100	-11.4644
.7%	-11.4646
càn	-11.4647
▁120000	-11.466
▁họp	-11.4695
*60	-11.4702
)*1	-11.4731
mất	-11.4768
76%	-11.4768
quả	-11.4769
▁4200	-11.477
ệt	-11.4773
并	-11.4788
buu	-11.479
tuyền	-11.4791
đua	-11.4791
trầm	-11.4791
lĩnh	-11.4791
tốt	-11.4795
bang	-11.4817
▁cụm	-11.4826
+20%	-11.4826
▁+66	-11.4831
除	-11.4844
未	-11.4844
▁miện	-11.4844
政策	-11.4844
下	-11.4844
行	-11.4844
更	-11.4844
type	-11.4844
position	-11.4844
▁aurelius	-11.4844
▁bận	-11.4844
▁dọc	-11.4844
▁nhuận	-11.4844
▁nhuộm	-11.4844
▁nhõm	-11.4844
▁náu	-11.4844
▁rinlan	-11.4844
▁zhitie	-11.4844
▁đậm	-11.4844
city	-11.4844
▁ava	-11.4844
为	-11.4844
▁nhạy	-11.4844
dule	-11.4845
▁[$3]	-11.4845
_6]	-11.4845
▁lửng	-11.4845
▁khẽ	-11.4845
▁tỵ	-11.4845
▁dâu	-11.4846
▁tưới	-11.4848
55%	-11.4849
▁tựa	-11.4849
▁hỉ	-11.4851
▁6.5%	-11.4852
▁ham	-11.4853
▁ngầu	-11.4854
▁hách	-11.4855
▁6.2	-11.486
600	-11.4862
▁+25	-11.4865
▁adela	-11.4865
▁lát	-11.4876
▁nanh	-11.4878
▁ếch	-11.4888
▁3/3	-11.4893
epanel	-11.4906
▁44%	-11.4908
▁+500000	-11.491
▁210%	-11.4915
▁khuyế	-11.492
▁2.4%	-11.4921
63	-11.4937
▁150000	-11.4941
▁27000	-11.4943
▁3.2%	-11.4962
4000	-11.4966
:1.	-11.4971
▁p	-11.4974
42%	-11.4982
▁680	-11.4985
▁chà	-11.5005
ảo	-11.5009
▁+1%,	-11.5032
▁[{	-11.5038
nhổ	-11.5039
99	-11.5066
le	-11.5069
hít	-11.5076
▁tạng	-11.508
hiêm	-11.509
sx	-11.5104
个人信息	-11.5138
▁1.0%	-11.5139
ơi	-11.5146
hư	-11.516
▁+220	-11.5161
quay	-11.5171
▁trá	-11.5187
2000+	-11.5197
▁+900	-11.5212
+5%.	-11.5213
34	-11.5216
▁q	-11.5228
▁bê	-11.5238
88%	-11.5247
▁+34	-11.5254
▁kha	-11.5262
khoai	-11.5269
50000	-11.5282
▁hend	-11.5286
▁(0/1	-11.5291
cũ	-11.5296
▁+10%\	-11.5298
nhỏ	-11.5304
dù	-11.5308
tru	-11.5308
chư	-11.5314
游戏	-11.5317
cấm	-11.5318
krana	-11.5318
vĩnh	-11.5318
duyên	-11.5318
vua	-11.5321
▁son	-11.5326
46	-11.534
cách	-11.534
cây	-11.5342
▁hoả	-11.5349
đột	-11.5355
58	-11.5357
▁trử	-11.5369
▁nàn	-11.537
通	-11.5371
5388;	-11.5371
;3109}	-11.5371
▁arthas	-11.5371
▁miếu	-11.5371
▁nịnh	-11.5371
▁sữa	-11.5371
▁đầy	-11.5371
▁cãi	-11.5371
▁shiz	-11.5371
guildinfo	-11.5371
mond	-11.5371
▁21:00-21:30	-11.5371
"},{"	-11.5371
▁bướm	-11.5371
1111111111111111	-11.5372
▁xót	-11.5373
▁chọc	-11.5373
▁mát	-11.5375
▁qq	-11.5375
▁ngợi	-11.5375
▁lẫy	-11.5378
▁1700	-11.5384
▁sảng	-11.5387
▁zhao	-11.5387
▁đứt	-11.5399
▁256	-11.5405
41%	-11.5407
săn	-11.5408
▁hí	-11.5411
▁hòng	-11.5416
▁+8%	-11.542
▁39%	-11.5425
▁chốt	-11.5428
▁loa	-11.5431
▁450%	-11.5441
0,	-11.5463
:0	-11.5467
▁350%	-11.5517
▁0.	-11.554
▁ga	-11.5544
▁[8	-11.5552
▁(4)	-11.5563
gõ	-11.5592
▁ồn	-11.5599
mi	-11.5609
▁1},	-11.5612
yển	-11.5621
▁he	-11.5625
*20,	-11.5639
ntiêu	-11.5645
▁{0}%	-11.5646
▁16000	-11.5666
999	-11.5676
đáng	-11.5698
nhộ	-11.5714
▁*	-11.5754
óm	-11.5763
bl	-11.5774
ắc	-11.5801
▁14000	-11.5809
.3%	-11.5821
/6	-11.5848
▁9999	-11.5855
以	-11.5868
leon	-11.5868
lão	-11.5873
tiar	-11.5873
chương	-11.5874
đề	-11.5874
+0.5%	-11.5881
/5	-11.5889
▁trù	-11.5897
▁5400	-11.5905
▁cắ	-11.591
nó	-11.5915
bàn	-11.5919
▁+70	-11.5923
socket	-11.5925
▁gã	-11.5926
明	-11.5926
effect	-11.5926
▁495012001$	-11.5926
▁bemoth	-11.5926
▁gối	-11.5926
▁leviathan	-11.5926
▁nặc	-11.5926
▁werther	-11.5926
▁selim	-11.5926
▁+17.5%\	-11.5926
▁+260	-11.5927
ễ	-11.5927
▁thỉu	-11.5928
▁lốc	-11.5929
▁+17500	-11.5929
▁rạp	-11.5931
▁rách	-11.5932
▁dật	-11.5933
......||(	-11.5934
▁($1)	-11.5934
▁nho	-11.5941
▁dầu	-11.5948
▁+6%	-11.5949
▁fb	-11.595
▁hỏng	-11.595
▁480	-11.5951
▁4.8%	-11.5953
▁thuế	-11.5956
tửu	-11.5963
▁2200	-11.5969
▁lọi	-11.5976
▁84%	-11.5977
▁qi	-11.5983
▁1400	-11.5993
▁170	-11.5995
▁37%	-11.6001
300	-11.6007
▁táng	-11.6018
▁42%	-11.6036
đi	-11.6042
▁+234	-11.6047
động	-11.6064
bội	-11.6073
▁7)	-11.6074
▁320	-11.6104
}!{	-11.6132
▁173	-11.6136
▁ke	-11.6139
6000	-11.6175
▁90000	-11.6177
▁[7	-11.6178
64	-11.6187
:<<*>/100>/1	-11.6224
hạc	-11.6251
}]	-11.6257
%*	-11.627
~20	-11.628
▁marc	-11.6319
ển	-11.6339
ho	-11.6365
ỉ	-11.6392
▁đò	-11.641
camp	-11.6413
chủ	-11.6434
ới	-11.6443
23%	-11.6454
▁vãn	-11.6455
cứ	-11.646
▁21000	-11.6461
zhirek	-11.6461
370	-11.6461
hừm	-11.6461
bọn	-11.6461
athena	-11.6461
rượu	-11.6461
diễm	-11.6461
lúc	-11.6461
lược	-11.6462
xuân	-11.6462
thea	-11.6462
bên	-11.6463
lv	-11.6467
điêu	-11.6468
đăng	-11.647
mô	-11.6471
bao	-11.6482
è	-11.6485
▁no	-11.6487
trạng	-11.6487
▁xứ	-11.6492
▁giọ	-11.6492
▁270	-11.6497
▁đố	-11.6508
gạt	-11.6511
▁vươn	-11.6514
;005695;	-11.6515
▁gớm	-11.6515
▁ngợm	-11.6515
▁trộn	-11.6515
▁trủng	-11.6515
▁vinci	-11.6515
▁xoắn	-11.6515
ắ	-11.6515
▁nản	-11.6515
▁{0}-{1}	-11.6515
▁ngoái	-11.6515
▁hĩnh	-11.6515
▁phê	-11.6515
▁ash	-11.6515
▁tỳ	-11.6516
▁rể	-11.6517
▁chửng	-11.6518
ven	-11.652
▁momo	-11.652
▁thiệt	-11.6521
ngay	-11.6523
▁ky	-11.6527
▁khoảnh	-11.6528
安全	-11.6528
▁tạc	-11.6537
▁$5	-11.6539
▁dưa	-11.6541
▁triề	-11.6543
▁95%	-11.6545
▁chóp	-11.6551
▁trưng	-11.6553
;131	-11.6555
▁+4	-11.6559
▁nhịp	-11.6569
▁dạo	-11.6575
▁111	-11.6585
▁35000	-11.6588
▁thai	-11.6589
▁+48	-11.6619
▁+129	-11.6623
79	-11.6639
́	-11.6639
▁liêu	-11.6644
7,	-11.6656
▁980	-11.6665
ncấp	-11.6669
nthưởng	-11.667
▁6480	-11.668
...||(	-11.6686
▁55%	-11.6688
▁360%	-11.669
!""""	-11.6693
▁+277	-11.6696
ừng	-11.6724
▁400000	-11.6725
5%\	-11.674
▁31%	-11.6742
▁1-9	-11.6745
.1%	-11.6758
▁+23	-11.6764
11%	-11.6775
nb	-11.6778
120	-11.6804
▁125	-11.6816
xu	-11.6823
nhoang	-11.683
▁6600	-11.6833
▁tó	-11.6861
▁+41	-11.6867
2.4%	-11.6874
▁(1/50	-11.6876
▁van	-11.6876
độ	-11.6908
240	-11.694
hành	-11.6979
:1	-11.6986
ca	-11.6989
▁2250	-11.6991
85	-11.6998
▁13000	-11.7
▁2},	-11.7023
▁thỉ	-11.7028
war	-11.7035
▁tao	-11.7039
86	-11.7063
ẩy	-11.7071
họ	-11.7074
▁28000	-11.7076
thứ	-11.7085
rambo	-11.7086
cuối	-11.7086
đoạt	-11.7087
nhiều	-11.7087
thống	-11.7087
ghép	-11.7088
chiêu	-11.7095
▁6)	-11.71
ngẫu	-11.71
ĩ	-11.7102
bắt	-11.7105
tài	-11.7106
syn	-11.7107
hai	-11.7109
huy	-11.7119
550	-11.7127
▁thấ	-11.7128
▁55000	-11.7128
▁má	-11.7133
▁+72	-11.7134
oãn	-11.7138
保	-11.7139
可	-11.7139
lld	-11.714
count	-11.714
▁20:30-21:00	-11.714
▁boram	-11.714
▁chuối	-11.714
▁rủi	-11.714
▁vứt	-11.714
▁úc	-11.714
▁ốm	-11.714
role	-11.714
▁nghèo	-11.714
▁rụi	-11.714
▁{2,"	-11.714
▁lười	-11.714
view	-11.714
▁8.5%	-11.714
▁gam	-11.714
▁biện	-11.714
;129	-11.714
▁+3600	-11.7141
▁+535	-11.7141
;130	-11.7142
▁dỡ	-11.7142
▁rẻ	-11.7142
▁lẩu	-11.7143
▁quyệt	-11.7143
▁duyệt	-11.7145
▁rẩy	-11.7146
▁+2400	-11.7147
▁<50%	-11.7147
▁cúc	-11.7148
rai	-11.7148
▁{1,"	-11.7149
gào	-11.7151
▁3300	-11.7151
▁lưới	-11.7154
▁bói	-11.7168
dec	-11.717
▁7500	-11.717
▁lượn	-11.7171
▁căng	-11.7176
lyn	-11.7182
577	-11.7183
ếch	-11.7183
▁{3}	-11.7186
▁tôm	-11.7189
▁jerrys	-11.7191
▁2.8%	-11.7192
▁đỗ	-11.7201
[%	-11.7206
▁1314	-11.7208
1/50)	-11.7211
987	-11.7214
▁đu	-11.7232
▁215%	-11.7234
▁12.5%	-11.7235
68000	-11.7236
14%	-11.7239
hiến	-11.7263
▁"1	-11.7274
▁+293	-11.7275
▁115	-11.7278
▁202	-11.728
=5	-11.7305
▁+560	-11.7315
*%	-11.7315
▁330	-11.7325
▁xi	-11.7331
ntop	-11.7331
+100000	-11.7331
sngày	-11.7336
▁125%	-11.7347
èo	-11.7351
所	-11.7353
13%	-11.7361
▁phùng	-11.737
.""""	-11.7376
z	-11.7378
yi	-11.7386
hu	-11.7393
or	-11.7406
▁dê	-11.741
48	-11.7414
an	-11.7431
▁khối	-11.7442
.||	-11.7483
rune	-11.7488
73	-11.75
▁413	-11.75
nguy	-11.7516
hi	-11.7547
▁17000	-11.7552
ừa	-11.7552
ểu	-11.7556
▁+11	-11.7559
iền	-11.7596
89	-11.763
▁2700	-11.7646
-14	-11.7649
1314	-11.7669
60000	-11.7683
▁650	-11.7686
▁22000	-11.7688
ee	-11.7689
ntin	-11.77
▁2100	-11.77
▁(1/300	-11.7719
▁+90	-11.7725
uôn	-11.7731
+3.5%	-11.7747
ừ	-11.7748
▁20:00	-11.7748
+4.5%	-11.7751
cài	-11.7753
cười	-11.7753
tầm	-11.7753
xếp	-11.7753
ngục	-11.7753
túy	-11.7753
trường	-11.7753
lạc	-11.7754
tịch	-11.7754
kita	-11.7754
qi	-11.7755
nhảy	-11.7756
chủy	-11.7757
bùng	-11.7757
máy	-11.7759
▁23000	-11.7761
▁7200	-11.7761
ỡ	-11.7766
nộ	-11.7768
▁fan	-11.7769
nhàn	-11.777
▁vò	-11.7777
51	-11.778
▁135	-11.7781
83%	-11.7783
vu	-11.7786
50%,	-11.7786
您的	-11.7787
hoáng	-11.7796
▁chả	-11.7803
▁phế	-11.7803
nghênh	-11.7804
▁ướ	-11.7805
▁trọn	-11.7805
inese	-11.7806
dianfeng	-11.7806
▁(1/30)	-11.7806
▁carolee	-11.7806
▁ghê	-11.7806
▁giftcode	-11.7806
▁lậu	-11.7806
▁margaery	-11.7806
▁mccanitz	-11.7806
▁rùa	-11.7806
▁{1}/{2}	-11.7806
▁điếu	-11.7806
item	-11.7806
"},{2,"	-11.7806
▁hãm	-11.7806
▁khét	-11.7806
▁giễu	-11.7807
▁1~3	-11.7807
▁ngửi	-11.7807
;122	-11.7807
▁gâu	-11.7807
▁quầy	-11.7807
▁hiệt	-11.7807
▁khơi	-11.7808
;123	-11.7808
;121	-11.7808
▁gánh	-11.7809
phát	-11.781
▁dốt	-11.7811
▁195%	-11.7811
▁4~10	-11.7812
▁hả	-11.7812
▁nỏ	-11.7812
▁trâu	-11.7812
▁rỉ	-11.7813
▁1300	-11.7813
▁thuỷ	-11.7817
▁chanh	-11.7817
▁khoát	-11.782
▁gọn	-11.782
▁tre	-11.7821
▁quyế	-11.7821
;128	-11.7824
97	-11.7828
▁+12.5%\	-11.7829
▁10800	-11.7831
▁1350	-11.7833
▁letty	-11.7842
▁2000%	-11.7862
hẻ	-11.7871
▁11000	-11.7886
▁sạ	-11.789
▁326	-11.789
▁330%	-11.7893
▁đè	-11.7899
▁2600	-11.7908
▁165%	-11.7918
dlần	-11.7921
▁54%	-11.7922
▁cúng	-11.7923
100%	-11.7923
oát	-11.7934
▁550	-11.7936
$	-11.7941
▁如	-11.7941
+10000	-11.7949
đáp	-11.7951
▁+55	-11.7962
▁biếng	-11.7972
▁220	-11.7999
▁rộn	-11.8009
*8	-11.801
huộc	-11.8028
từ	-11.803
▁tản	-11.8047
150	-11.8076
nthu	-11.8079
▁thà	-11.8083
vale	-11.8089
1400	-11.812
to	-11.8126
.8%	-11.8135
99%	-11.8139
▁+32	-11.814
1.5	-11.8153
▁hòn	-11.8157
6;	-11.8192
▁+111	-11.8198
▁cối	-11.8205
}}	-11.8214
▁576	-11.8223
▁72000	-11.8237
▁370	-11.8242
18%	-11.8244
29%	-11.8244
▁$	-11.8257
▁500000	-11.8278
▁688	-11.828
man	-11.8313
gây	-11.8333
▁nền	-11.8357
90	-11.8374
à	-11.838
ê	-11.8381
ôi	-11.8385
47%	-11.8399
▁khư	-11.8422
83	-11.8446
hắn	-11.8454
ý	-11.8459
▁jerry	-11.8462
chị	-11.8466
yugi	-11.8467
killer	-11.8467
thước	-11.8467
dẫn	-11.8467
hoặc	-11.8467
kỵ	-11.8468
giây	-11.8469
vừa	-11.8469
nthánh	-11.847
phóng	-11.8471
leona	-11.8473
giải	-11.8474
he	-11.8475
giao	-11.848
1.5%	-11.8482
ổ	-11.8483
khóa	-11.8486
▁5%.	-11.849
báo	-11.8492
▁trứ	-11.8498
cổ	-11.8503
giai	-11.8503
▁mồ	-11.8505
3000	-11.8515
▁tì	-11.8517
32%	-11.8517
▁nọ	-11.8517
将	-11.852
▁bôn	-11.852
ể	-11.852
▁lùn	-11.852
index	-11.852
battle	-11.852
"},{3,"	-11.8521
:0.41%	-11.8521
phóngphóngphóng	-11.8521
▁bọt	-11.8521
▁chạp	-11.8521
▁ghiếc	-11.8521
▁hiếp	-11.8521
▁kohl	-11.8521
▁lolth	-11.8521
▁muối	-11.8521
▁thiếp	-11.8521
▁xộn	-11.8521
74;【%	-11.8521
▁00:00:00	-11.8521
▁(1/12)	-11.8521
▁[$4]	-11.8521
授权	-11.8521
▁debuff	-11.8521
限	-11.8521
▁đuốc	-11.8522
▁nhọc	-11.8523
▁1-2	-11.8523
dã	-11.8523
▁khuê	-11.8524
▁nọt	-11.8524
▁ngụm	-11.8524
sổ	-11.8526
▁trớ	-11.8526
▁lombers	-11.8527
▁+39	-11.853
▁teresa	-11.8531
get	-11.8532
▁vulcan	-11.8535
▁137%	-11.8538
▁xxx	-11.854
▁300000	-11.8541
▁ru	-11.8547
▁20:00-20:	-11.8553
▁*5	-11.8553
▁255%	-11.8562
▁ẩm	-11.8566
▁22.5%	-11.8567
▁375	-11.8594
""}	-11.8602
▁gm	-11.8609
▁hừm	-11.861
▁3400	-11.8643
ế	-11.8646
▁khiêm	-11.8654
*24	-11.8654
▁260%	-11.8654
nma	-11.8655
▁135%	-11.8658
0.5%	-11.866
6000;【	-11.8666
im	-11.8668
fu	-11.8686
▁3-5	-11.8689
▁đốn	-11.8692
▁khán	-11.8696
▁đù	-11.8701
▁(5)	-11.8703
▁3500	-11.8726
▁403	-11.8728
▁24:00	-11.8728
▁210	-11.8731
280	-11.8738
▁buôn	-11.874
tốn	-11.8742
du	-11.877
▁nhung	-11.8774
!}	-11.8776
▁giảng	-11.8799
▁cụt	-11.8814
▁xán	-11.8817
▁259	-11.882
*7	-11.8837
*19	-11.8838
▁+11500	-11.8841
300%	-11.8844
dây	-11.885
▁nãy	-11.8854
▁há	-11.8863
▁ngó	-11.8884
▁+6	-11.8886
▁sốc	-11.8889
ntrảm	-11.8905
kho	-11.8909
shi	-11.8923
á	-11.8929
▁140000	-11.8949
ay	-11.8956
uống	-11.8957
您的个人信息	-11.8975
/10	-11.8986
;1}	-11.8995
8.8%	-11.9004
7000	-11.9007
▁+170	-11.9018
得	-11.9054
ù	-11.9059
▁+69	-11.906
67%	-11.9065
▁+1800	-11.909
▁+1150	-11.9096
9;%	-11.9117
▁$2/1	-11.9171
▁+35	-11.9186
né	-11.9187
该	-11.9195
▁+12500	-11.9204
thi	-11.9206
eq	-11.921
ẽ	-11.9213
*50	-11.9215
▁+7	-11.9217
▁19000	-11.9223
▁+180	-11.9223
hoảng	-11.9231
thỏ	-11.9232
kế	-11.9234
vãn	-11.9235
dante	-11.9236
bona	-11.9236
trăng	-11.9237
lãnh	-11.9237
bình	-11.9237
khởi	-11.9237
đối	-11.9237
bậc	-11.9237
bishop	-11.9237
thân	-11.9238
cung	-11.9238
thập	-11.9239
đầy	-11.9239
phương	-11.924
tác	-11.925
thuốc	-11.9251
phệ	-11.9254
▁+24	-11.9255
chào	-11.9256
vong	-11.9258
61	-11.9269
quảng	-11.9272
▁pho	-11.9282
▁tớ	-11.9283
iều	-11.9285
▁26000	-11.9285
chung	-11.9286
che	-11.9288
hĩa	-11.9289
▁đắn	-11.9289
▁lặn	-11.9289
公	-11.9289
共享	-11.929
要求	-11.929
合法	-11.929
duplicate	-11.929
▁blake	-11.929
▁buồm	-11.929
▁ngặt	-11.929
▁wiese	-11.929
▁đuối	-11.929
▁đậy	-11.929
▁[223]	-11.929
▁irene	-11.929
▁sắm	-11.929
▁{{1,"	-11.929
▁dulumu	-11.929
▁ndt	-11.929
;132	-11.929
▁nhượng	-11.929
;82	-11.929
big	-11.9291
player	-11.9291
▁gầy	-11.9291
▁xí	-11.9292
▁11-20	-11.9292
▁mại	-11.9292
▁(1/2)	-11.9292
▁+650	-11.9293
▁11~20	-11.9293
▁chiên	-11.9294
̀i	-11.9295
▁rẽ	-11.9296
▁8~1	-11.9296
▁mồm	-11.9298
▁gắt	-11.9299
▁2.0%	-11.9299
▁tráo	-11.93
▁36000	-11.93
9.2%	-11.9301
480	-11.9303
▁ngắt	-11.9305
▁lường	-11.9307
▁188	-11.9311
400;	-11.9314
▁+450	-11.9315
▁tăm	-11.9316
=""1"",	-11.9317
▁3800	-11.9318
út	-11.9321
▁399	-11.9327
itan	-11.933
85%	-11.933
▁ngây	-11.9349
▁15~	-11.9353
▁lợ	-11.9371
!",	-11.9396
mây	-11.9401
lo	-11.9426
fa	-11.9426
▁+9000	-11.9428
ion	-11.9431
▁(0/3	-11.9436
tây	-11.9444
▁ngoạ	-11.9453
▁(6)	-11.9464
:5.	-11.9466
▁3200	-11.9485
hiểu	-11.9486
▁(0/2	-11.9502
+500	-11.9513
+1000,	-11.9518
▁icon	-11.9543
_0	-11.9564
▁ơ	-11.9569
▁3900	-11.9605
20000	-11.9608
▁thò	-11.9617
17,	-11.9623
+1000	-11.9639
57	-11.9645
▁xoá	-11.9656
▁lư	-11.9665
▁21:	-11.9681
500%	-11.9696
crossc	-11.9703
eo	-11.971
ả	-11.9714
nđỏ	-11.9715
rơi	-11.9727
1600	-11.9732
▁130000	-11.9738
▁haha	-11.9739
150%	-11.979
*12	-11.9829
:7	-11.9831
hướng	-11.9832
888	-11.985
+16000	-11.9852
phần	-11.9924
áy	-11.9937
▁+74	-11.9988
▁+281	-12.0004
▁30%.	-12.002
côn	-12.0022
nthông	-12.0027
tín	-12.0069
turko	-12.0069
{0}/{1}	-12.0069
nhiếp	-12.007
katius	-12.007
stamira	-12.007
hiro	-12.007
cầm	-12.007
biển	-12.007
điện	-12.007
khai	-12.0071
lời	-12.0071
cuộc	-12.0072
mạc	-12.0073
túi	-12.0073
ur	-12.0074
mù	-12.0074
▁+190	-12.0075
>,	-12.0078
2;%	-12.0081
phật	-12.0083
267	-12.0083
tân	-12.0085
▁110000	-12.0097
▁1888	-12.0105
▁ké	-12.0108
ro	-12.0114
▁chớ	-12.0118
关	-12.0123
止	-12.0123
đun	-12.0123
▁snake	-12.0123
"},{1,"	-12.0123
({2}/{3})	-12.0123
▁corel	-12.0123
▁florence	-12.0123
▁gò	-12.0123
▁hoằng	-12.0123
▁kiệm	-12.0123
▁qúy	-12.0123
▁uruchham	-12.0123
"},{4,"	-12.0123
件	-12.0123
方式	-12.0123
via	-12.0123
▁voi	-12.0123
▁【$3】	-12.0123
▁gato	-12.0123
▁vanas	-12.0123
doc	-12.0123
▁kề	-12.0123
▁20:30	-12.0124
▁naru	-12.0124
▁thừng	-12.0124
▁5.0%	-12.0124
▁mỡ	-12.0124
▁+167	-12.0124
▁dev	-12.0124
▁chật	-12.0124
▁+446	-12.0126
▁nợ	-12.0126
▁đính	-12.0127
▁0/3	-12.0127
▁lụi	-12.0128
▁0.75%	-12.0129
▁dở	-12.0132
▁rễ	-12.0132
▁565	-12.0134
{"	-12.0135
▁đắt	-12.0136
$5]	-12.0136
▁khoác	-12.0137
▁+0.1%	-12.014
▁75000	-12.014
:4.	-12.0143
▁65000	-12.0144
▁ví	-12.0144
▁+340	-12.0146
▁ssr	-12.0146
▁cút	-12.0148
▁bực	-12.0151
▁đo	-12.0153
▁13500	-12.0158
▁+10000000	-12.016
$8	-12.0161
nboss	-12.0165
▁loli	-12.0166
▁112%	-12.0169
450	-12.017
3,"	-12.0173
应	-12.0176
▁6750	-12.0179
▁hăng	-12.0183
▁dai	-12.0188
ấ	-12.0188
tw	-12.0196
+22000	-12.0198
ương	-12.0201
▁+430	-12.0201
▁vâng	-12.0217
(1)	-12.0229
▁1500%	-12.0235
nổ	-12.0237
rank	-12.0244
▁dang	-12.0246
▁+360	-12.0254
*1000	-12.0257
▁1.8%	-12.0264
go	-12.0266
1950	-12.0268
▁(10	-12.0268
▁130%	-12.028
hộp	-12.0306
▁5200	-12.0318
▁ko	-12.0326
-98	-12.033
▁10)	-12.0332
▁2800	-12.0345
▁+46	-12.0351
07	-12.0371
shen	-12.0373
bi	-12.0389
+1%,	-12.0405
▁101	-12.0407
▁lu	-12.0413
.....	-12.0434
任何	-12.0441
]~[1	-12.046
590	-12.0484
▁+75	-12.0499
/200	-12.0532
ngưng	-12.055
ựa	-12.057
▁388	-12.0609
ru	-12.0631
gi	-12.0637
▁123	-12.0679
▁1750	-12.0686
=10	-12.0696
处理	-12.0699
"",""	-12.0724
vợt	-12.0735
▁mu	-12.0745
▁xen	-12.075
rạng	-12.0751
▁+22	-12.0762
▁(0	-12.0775
{4}	-12.0785
360	-12.0789
;3}	-12.0794
▁3-4	-12.08
bá	-12.0827
ly	-12.0828
ndu	-12.0835
▁+1950	-12.0843
.47%	-12.0852
haha	-12.0857
ỷ	-12.0871
)|	-12.0878
1200	-12.0898
▁29000	-12.0911
▁de	-12.0925
▁3.2	-12.0934
ợ	-12.0936
▁48000	-12.0945
10000	-12.0959
▁166	-12.0964
<<*>/50>/6	-12.0972
+20000	-12.0976
chổi	-12.0978
cự	-12.0978
trục	-12.0979
kensin	-12.0979
pierre	-12.0979
quế	-12.0979
nhiệt	-12.0979
spoby	-12.0979
đèn	-12.0979
chứng	-12.0979
lilith	-12.0979
pvp	-12.0979
quý	-12.0979
thợ	-12.0979
kì	-12.0979
đương	-12.0981
mẹ	-12.0984
bài	-12.0985
mị	-12.0985
quái	-12.0988
chúa	-12.0991
ì	-12.0996
<<*>/50>/1	-12.0999
▁0/2	-12.1001
cốc	-12.1005
▁+112	-12.1005
$2/$3	-12.1007
1150	-12.1007
nquy	-12.1011
▁1250	-12.1017
其他	-12.1028
▁quạ	-12.103
▁19:00	-12.1031
其	-12.1032
能	-12.1032
全	-12.1032
guild	-12.1032
▁freddo	-12.1032
▁cọc	-12.1032
▁davis	-12.1032
▁helios	-12.1032
▁ironthorn	-12.1032
▁léo	-12.1032
▁lứa	-12.1032
▁mccannitz	-12.1032
▁thoái	-12.1032
▁tifron	-12.1032
▁tucker	-12.1032
▁ziggy	-12.1032
▁vlad	-12.1032
▁22:00	-12.1032
=2},	-12.1032
▁cua	-12.1032
知	-12.1032
▁+40	-12.1032
▁sườn	-12.1032
▁thược	-12.1032
▁giương	-12.1033
▁xẻo	-12.1033
▁rú	-12.1033
▁khước	-12.1033
new	-12.1033
▁đắng	-12.1033
▁toạc	-12.1034
▁nhánh	-12.1034
▁+364	-12.1034
▁+65000	-12.1034
▁[2]	-12.1034
▁nể	-12.1034
▁vidi	-12.1034
▁chửi	-12.1035
▁khàn	-12.1035
▁trửu	-12.1035
50/50	-12.1035
▁tiệp	-12.1035
;137	-12.1036
▁xỉu	-12.1037
▁vác	-12.1037
rân	-12.1037
sợ	-12.1038
▁rựa	-12.1039
▁145000	-12.1039
▁[{0}]	-12.104
phải	-12.104
[$3	-12.1041
=303	-12.1041
▁4400	-12.1041
▁koi	-12.1044
▁rã	-12.1045
▁rầy	-12.1045
▁+133	-12.1046
;134	-12.1049
▁bôi	-12.105
://	-12.105
/12	-12.1052
▁vảy	-12.1055
▁yong	-12.1056
;135	-12.1057
▁aiden	-12.1061
▁...""""	-12.1064
_1}	-12.1064
▁126	-12.1065
▁táp	-12.1066
▁4.4%	-12.1067
▁105000	-12.1067
我们的	-12.1068
3:00	-12.1068
▁168%	-12.1069
▁190%	-12.107
mưu	-12.1073
▁135000	-12.1073
▁ủ	-12.1077
▁team	-12.1077
同意	-12.1083
▁66%	-12.1084
▁5.4%	-12.1089
1500	-12.109
▁dào	-12.1098
▁45%,	-12.1102
▁720	-12.1103
▁420	-12.1104
▁nạm	-12.1107
275%	-12.111
▁57%	-12.1114
▁+5400	-12.1117
▁560	-12.1122
▁$1)	-12.1123
part	-12.1124
▁230%	-12.113
▁eo	-12.1135
▁518	-12.1136
ntạo	-12.1137
▁$1/	-12.1139
fff	-12.1144
.10	-12.1144
▁bơ	-12.1146
▁hoạn	-12.115
▁346	-12.1158
▁85%	-12.1163
-17	-12.1171
▁+65	-12.1171
80000	-12.1176
▁2-5	-12.1193
▁37.5%	-12.1198
▁sam	-12.1213
+6000	-12.1227
3=""	-12.1236
4=""	-12.1236
▁chê	-12.1252
ướng	-12.1263
220%	-12.1278
▁380	-12.1291
▁ngẩ	-12.1296
trên	-12.1307
▁(0/50	-12.1319
tuổi	-12.1321
hình	-12.1327
▁j	-12.1338
3280	-12.134
▁dịp	-12.1353
húc	-12.1358
▁+91	-12.1363
▁461	-12.1368
980	-12.1385
+32000	-12.1394
▁185	-12.1401
▁0.1	-12.1433
dngày	-12.1449
...”	-12.145
【7	-12.1467
giết	-12.1496
![	-12.1501
hạ	-12.1506
uộc	-12.1551
10%\	-12.157
▁+14000	-12.1572
▁14400	-12.1574
cú	-12.1609
ale	-12.1622
▁+675	-12.1635
:6	-12.1638
40000	-12.1642
22%	-12.1645
▁+223	-12.1662
->	-12.1695
ế	-12.17
2.5	-12.1702
tê	-12.1702
*600	-12.1711
▁175	-12.1715
ước	-12.1729
▁+29	-12.1733
▁2.2%	-12.1755
ên	-12.1781
▁+3400	-12.1788
635	-12.1815
640	-12.1833
phẩm	-12.1838
ượng	-12.1843
48000	-12.1845
▁+17	-12.1846
nthường	-12.1847
相关	-12.1851
ck	-12.1869
▁390	-12.1875
▁+95	-12.1882
ói	-12.1907
▁240%.	-12.1908
▁4600	-12.1909
180	-12.1913
00%.	-12.1917
${	-12.1919
▁3.1	-12.1925
▁85000	-12.193
▁+3750	-12.1937
-20	-12.1938
/8	-12.1945
▁+380	-12.1947
▁+59	-12.1949
34%	-12.1957
hôn	-12.1963
hưởng	-12.1964
▁5:00	-12.1974
ị	-12.1974
公开	-12.1974
+28000	-12.1976
850	-12.1976
letty	-12.1977
raiken	-12.1978
reywin	-12.1978
【$2】	-12.1978
wukong	-12.1979
bấm	-12.1979
jasmine	-12.1979
bối	-12.1979
xưởng	-12.1979
dari	-12.1979
chữa	-12.1979
kubo	-12.1979
rối	-12.1979
kẹo	-12.1979
dracula	-12.1979
alvine	-12.1979
gần	-12.1979
trượng	-12.1979
ngài	-12.1979
tiếp	-12.1979
nâng	-12.1979
giờ	-12.1979
lãng	-12.1979
tết	-12.198
ván	-12.198
cảnh	-12.1981
mịch	-12.1981
chắc	-12.1982
[221]%	-12.1982
hủy	-12.1982
lại	-12.1982
{2}	-12.1982
vực	-12.1982
+1500	-12.1984
cùng	-12.1986
mà	-12.1989
ter	-12.1989
thổ	-12.1991
▁+350	-12.1991
mới	-12.1993
câm	-12.1998
+24000	-12.2006
yas	-12.2015
▁8400	-12.2016
▁630	-12.2018
▁nhả	-12.2024
equip	-12.203
要	-12.2032
个	-12.2032
需	-12.2032
suit	-12.2032
doraemon	-12.2032
▁100%/200%/300%	-12.2032
号	-12.2032
jxfy	-12.2032
▁argate	-12.2032
▁cằn	-12.2032
▁elise	-12.2032
▁fiorano	-12.2032
▁lassus	-12.2032
▁like	-12.2032
▁poin	-12.2032
▁thomas	-12.2032
▁vắng	-12.2032
▁ầm	-12.2032
auction	-12.2032
client	-12.2032
▁gilt	-12.2032
▁safgar	-12.2032
=1},	-12.2032
attac	-12.2032
可能	-12.2032
▁$1]$2	-12.2032
▁12:15	-12.2032
money	-12.2032
;136	-12.2033
▁nhợt	-12.2033
▁ruột	-12.2033
/400%	-12.2033
ium	-12.2033
▁gạo	-12.2033
▁hú	-12.2033
;133	-12.2033
▁[3]	-12.2033
▁kỉ	-12.2033
▁300%/400%	-12.2033
▁gạch	-12.2033
▁[1]	-12.2034
}-{	-12.2035
▁khẩn	-12.2035
0%+30000	-12.2035
▁vừng	-12.2035
change	-12.2035
▁streamer	-12.2035
11536;%	-12.2036
▁<60%	-12.2036
▁ngơ	-12.2036
▁rảnh	-12.2038
▁ngạt	-12.2038
▁giông	-12.204
▁1650	-12.2041
▁5%+10000	-12.2042
▁125000	-12.2042
▁95000	-12.2044
▁290	-12.2049
▁900%	-12.205
▁+40%	-12.2053
▁sờ	-12.2054
tụng	-12.2056
▁115000	-12.2059
án	-12.2059
▁23:00	-12.2061
▁768	-12.2061
1,"	-12.2062
▁1600%	-12.2067
ngô	-12.2069
▁crodile	-12.2071
=4}	-12.2072
▁5.2%	-12.2084
▁nôi	-12.2085
▁1200%	-12.2085
6000}	-12.2088
+1.2%	-12.209
mũi	-12.2092
.12%	-12.2093
▁72%	-12.2099
ãng	-12.21
nphấn	-12.2102
▁5.6%	-12.2102
▁05%	-12.2103
]+[	-12.2106
▁lạt	-12.2108
840	-12.2108
▁74%	-12.211
niên	-12.2115
=16	-12.2117
▁340%	-12.2122
tâm	-12.2125
服务的	-12.2126
▁199	-12.2136
▁3000%	-12.2136
游戏服务	-12.2137
▁并	-12.2147
▁xám	-12.2149
608	-12.2149
▁ah	-12.2151
ớn	-12.2151
▁1/3	-12.2167
▁3},	-12.2175
▁+640	-12.2178
nphẩm	-12.2179
▁——	-12.2184
▁bu	-12.2189
▁+325	-12.219
▁+57	-12.2192
▁41%	-12.2201
▁1.4%	-12.2202
ka	-12.2211
_3	-12.2212
op	-12.2219
+350000	-12.2233
▁ur	-12.224
năng	-12.2241
51%	-12.2252
cống	-12.2266
;6	-12.2267
▁17.5%	-12.2272
▁666	-12.2274
▁161	-12.2288
~~	-12.2291
▁1.1-	-12.2301
hàng	-12.2302
vs	-12.2303
20;	-12.2305
db	-12.2308
1.6%	-12.2309
▁1890	-12.2309
386	-12.2318
▁580	-12.2322
265%	-12.233
160	-12.2351
nchú	-12.2355
20)	-12.2364
▁(1/150	-12.237
ncơ	-12.2415
▁kiề	-12.2422
13600	-12.2432
▁sr	-12.2433
▁vá	-12.244
168	-12.2451
ung	-12.2455
▁+115	-12.2472
▁1288	-12.2491
nthức	-12.2496
▁dại	-12.2503
▁1100	-12.2507
▁$1%	-12.2541
▁105	-12.2544
▁165	-12.2572
_7	-12.2612
▁(30	-12.2623
(0/2	-12.2628
▁+2700	-12.2663
5;%	-12.2679
iên	-12.2681
▁(7	-12.2723
(1	-12.2731
▁273	-12.274
▁+18000	-12.2743
▁1762	-12.2757
+5%\	-12.2764
54	-12.2766
▁132	-12.2774
▁se	-12.2834
hệch	-12.2846
24%	-12.2847
mo	-12.2863
é	-12.2865
tian	-12.2875
▁143	-12.2877
hua	-12.2879
▁+28	-12.288
▁50%+1000	-12.2899
(2)	-12.2914
▁+35000	-12.2915
▁21600	-12.2918
▁dă	-12.2935
▁+1900	-12.2952
▁ngh	-12.2963
360%	-12.2966
ớ	-12.2973
▁$2)	-12.2982
▁hoạ	-12.2986
▁ngo	-12.2989
ổng	-12.2989
26%	-12.2994
▁nhí	-12.3003
▁phụng	-12.3009
âu	-12.306
▁+102	-12.3061
ủ	-12.3062
▁54000	-12.3071
▁9600	-12.3078
ũ	-12.3078
意	-12.3079
ảnh	-12.3081
học	-12.3085
hãn	-12.3087
team	-12.3088
phú	-12.3088
+18000	-12.3088
loli	-12.3088
cừu	-12.309
darek	-12.309
hekka	-12.309
nauti	-12.309
liliya	-12.309
jana	-12.309
rylai	-12.309
varot	-12.309
lyrd	-12.309
lưỡi	-12.309
gundam	-12.309
cậu	-12.309
đình	-12.309
đòn	-12.309
đưa	-12.309
dưới	-12.309
trị	-12.309
mình	-12.309
chia	-12.309
thử	-12.309
sủng	-12.309
lửa	-12.3091
giấy	-12.3091
viễn	-12.3091
lý	-12.3091
khắc	-12.3091
cửa	-12.3092
chờ	-12.3092
chuông	-12.3094
họa	-12.3099
12%	-12.3099
7.2%	-12.3099
cánh	-12.31
bởi	-12.3101
ném	-12.3102
vâng	-12.3103
5.2%	-12.3108
]="	-12.3111
▁ngỗ	-12.3117
▁1900	-12.3122
độc	-12.3127
▁131	-12.3132
▁mớ	-12.3134
▁kè	-12.3134
quá	-12.3135
▁tuôn	-12.3141
cookie	-12.3141
phiêu	-12.3142
zhen	-12.3143
daily	-12.3143
保护	-12.3143
"},{5,"	-12.3143
transfer	-12.3143
▁hẹp	-12.3143
▁ngò	-12.3143
▁nếp	-12.3143
▁robot	-12.3143
▁weidi	-12.3143
▁ðan	-12.3143
▁ðạt	-12.3143
▁núng	-12.3143
combineserver	-12.3143
=3},	-12.3143
line	-12.3143
▁({0}/{1})	-12.3143
▁phỏng	-12.3143
▁$1-$2	-12.3143
情	-12.3143
品	-12.3143
;139	-12.3143
▁13.5%	-12.3144
▁trướng	-12.3144
_4_1}	-12.3144
_3_1}	-12.3145
recharge	-12.3145
▁+975	-12.3145
▁sẹo	-12.3146
▁[$6]	-12.3147
▁sủa	-12.3147
▁lút	-12.3147
▁+324	-12.3148
▁888	-12.3148
▁lở	-12.3148
▁doãn	-12.3149
▁xxxxx	-12.3149
▁cước	-12.3149
▁vớt	-12.3149
▁rũ	-12.3149
5'>	-12.3149
▁nè	-12.3149
▁hũ	-12.3151
▁cỡ	-12.3152
▁vùi	-12.3152
▁+280	-12.3152
▁184	-12.3153
▁lóc	-12.3153
21%	-12.3153
▁nhảm	-12.3154
tor	-12.3154
▁(1/6)	-12.3154
▁+18750	-12.3157
▁4.2%	-12.3158
=""4"",	-12.3159
▁kem	-12.3159
▁chiểu	-12.316
▁+86	-12.316
game	-12.316
▁liềm	-12.3164
▁+{0}	-12.3166
▁{$	-12.3169
▁meo	-12.317
▁457	-12.3172
920	-12.3174
##	-12.3174
▁119	-12.3181
▁+53	-12.3186
nmang	-12.3186
▁+26000	-12.3191
2160	-12.3191
+1.4%	-12.3198
▁7.2%	-12.32
▁vani	-12.3201
▁2300	-12.3203
uốc	-12.3204
▁+130	-12.3205
+1.8%	-12.3211
▁+171	-12.3212
tri	-12.3213
sắc	-12.3214
khốn	-12.3218
▁270%	-12.3219
2400	-12.322
nhắc	-12.3221
▁430	-12.3233
ín	-12.3243
;36	-12.3247
dknb	-12.3248
▁113	-12.3251
▁or	-12.3251
▁750%	-12.3251
▁我们	-12.3252
▁mài	-12.3253
▁kìa	-12.3256
▁540	-12.3256
nước	-12.3256
▁49%	-12.3268
▁+6300	-12.3269
▁10500	-12.3272
*80	-12.3282
▁xôi	-12.3282
:<<*>/50>/3	-12.3282
▁4900	-12.3282
▁170%	-12.3286
▁+96	-12.331
+1.6%	-12.3317
=""10	-12.3319
▁+13	-12.332
▁giảo	-12.3323
;0	-12.3329
320	-12.3333
nphần	-12.3344
0228;	-12.3345
ex	-12.335
ncôn	-12.336
1625	-12.3366
▁0/50	-12.3389
.94%	-12.3398
2022	-12.3415
ẩm	-12.3418
▁+21000	-12.347
sknb	-12.347
=4,	-12.3484
▁chai	-12.3489
▁ranh	-12.3495
nnhất	-12.3508
▁530	-12.3524
00+	-12.3535
+200	-12.3545
ren	-12.3552
▁148	-12.3568
▁129	-12.3583
▁-%	-12.3584
up	-12.3594
▁+375	-12.3596
nphụ	-12.3669
*20000	-12.3683
▁trơ	-12.3703
的信息	-12.3731
▁7800	-12.3739
nvõ	-12.3776
-30	-12.3793
ami	-12.38
ntố	-12.3803
▁(0/	-12.3836
▁154	-12.3839
4.5%	-12.3839
:{	-12.384
▁116	-12.3844
hảo	-12.3865
▁365	-12.3876
▁mãng	-12.3911
+10%\	-12.393
hàm	-12.3944
▁phả	-12.3958
▁196	-12.3961
gai	-12.3962
=1,	-12.3967
▁490	-12.3976
nthế	-12.3982
用户帐号	-12.3983
8400	-12.3987
vo	-12.3996
#11	-12.4007
ợt	-12.4022
/20	-12.4025
.53%	-12.4032
+3	-12.4049
▁176	-12.4059
00}	-12.4077
760	-12.4097
=3,	-12.4114
▁chù	-12.4117
▁+64	-12.4137
▁$2!	-12.4142
650	-12.4149
▁171	-12.4151
khố	-12.4173
7"",	-12.418
tạo	-12.4199
áng	-12.4213
hắc	-12.4219
ntê	-12.4225
oa	-12.4225
▁760	-12.4228
qu	-12.426
▁320%	-12.4266
ử	-12.4275
▁4700	-12.4278
▁(1/400	-12.4309
28%	-12.431
!}{	-12.4316
aisha	-12.4325
yên	-12.4332
hết	-12.4334
▁7600	-12.4336
+14000	-12.4338
hỏng	-12.4339
adela	-12.4339
jane	-12.4339
quan	-12.434
($1/$2)	-12.434
huỳnh	-12.434
đoan	-12.434
tận	-12.434
thị	-12.434
súng	-12.434
trái	-12.434
vết	-12.434
bắn	-12.434
chùy	-12.434
khổng	-12.434
「	-12.434
trở	-12.434
lũ	-12.4341
aron	-12.4341
khúc	-12.4341
()	-12.4341
luân	-12.4341
thưa	-12.4342
▁770	-12.4342
lạp	-12.4342
khách	-12.4342
thích	-12.4343
phiên	-12.4345
10.0%	-12.4345
văn	-12.4345
lâm	-12.4347
khải	-12.4347
+0.8%	-12.4347
khóc	-12.435
93%	-12.4351
loa	-12.4351
phiến	-12.4354
phồn	-12.436
uẩn	-12.4362
▁780	-12.4365
▁al	-12.4373
ẹ	-12.4378
are	-12.4379
iễu	-12.4381
170	-12.4383
▁1950	-12.4385
▁gía	-12.4386
cáo	-12.4387
11536;	-12.4389
ót	-12.439
会	-12.4391
身份信息	-12.4392
sí	-12.4393
任	-12.4393
($1/	-12.4393
zhuang	-12.4393
xunbao	-12.4393
>>>>>>>>>>	-12.4393
▁cool	-12.4393
▁16:00-16:30	-12.4393
▁alwyn	-12.4393
▁caldwell	-12.4393
▁còi	-12.4393
▁file	-12.4393
▁giặc	-12.4393
▁lều	-12.4393
▁patch	-12.4393
▁reset	-12.4393
▁sandelika	-12.4393
▁tifren	-12.4393
▁đổi	-12.4393
▁ơiiiiiiii	-12.4393
▁sỏi	-12.4393
age	-12.4393
▁virus	-12.4393
menu	-12.4393
▁xịn	-12.4393
_2_1}	-12.4393
xe	-12.4393
务	-12.4394
该等	-12.4394
及时	-12.4394
▁đạc	-12.4394
▁+1300	-12.4394
▁gáy	-12.4395
▁chọi	-12.4395
▁mĩ	-12.4395
renz	-12.4395
;138	-12.4396
▁lừng	-12.4396
time	-12.4396
▁(1/4)	-12.4396
▁mánh	-12.4398
▁ngút	-12.4398
▁nung	-12.4398
*288	-12.4398
▁+175	-12.4399
30/30	-12.4399
30000	-12.4399
lice	-12.44
inc	-12.44
▁14.4%	-12.4401
▁khỏa	-12.4401
▁1680	-12.4402
▁phường	-12.4403
▁rổ	-12.4404
▁flash	-12.4405
▁$2/3	-12.4406
ửa	-12.4406
▁khăm	-12.4406
▁xóm	-12.4407
▁trix	-12.4407
▁+850	-12.441
="	-12.4411
▁11250	-12.4412
▁hee	-12.4413
ki	-12.4414
▁khăng	-12.4414
fb	-12.4414
ỡi	-12.4414
666	-12.4418
=""3"",	-12.4419
▁960	-12.4424
=""2"",	-12.4425
6"",	-12.4426
▁sẫm	-12.4429
▁390%	-12.4429
▁+14%	-12.443
▁bếp	-12.4433
▁133	-12.4435
huang	-12.4436
▁le	-12.4437
dự	-12.4439
▁145	-12.4442
35000	-12.4442
▁rỗi	-12.4443
=11	-12.4444
▁440%	-12.4444
+12000	-12.4446
▁bóc	-12.445
=""50	-12.4455
▁+7.5%\	-12.4457
▁225	-12.4461
lộ	-12.4461
;97	-12.4461
▁+73	-12.4465
▁trịnh	-12.4465
49%	-12.4472
▁「“	-12.4482
▁61%	-12.4484
▁vịnh	-12.4485
▁+43	-12.4487
+{	-12.4489
▁({0}	-12.4496
ích	-12.4502
3.6%	-12.4506
uo	-12.451
▁+4.5%	-12.4511
rình	-12.4515
$2)	-12.4521
▁+60%	-12.4523
▁yu	-12.453
▁2021	-12.4543
ạo	-12.4544
▁*100	-12.4564
▁139	-12.4584
330	-12.4587
2.25%	-12.459
▁+625	-12.4594
▁cồn	-12.4596
▁124	-12.4611
ùn	-12.4612
▁+37	-12.4619
▁xui	-12.4637
5460	-12.4637
▁đàng	-12.4639
▁+120000	-12.4674
▁+27	-12.4676
"""	-12.4694
:+%	-12.4719
▁800000	-12.4728
▁+162	-12.4739
▁+52	-12.4751
▁320%.	-12.4755
nquay	-12.4764
333	-12.4765
▁+51	-12.477
▁187	-12.4809
|%	-12.4826
80%.	-12.4834
▁1.3%	-12.4837
▁177	-12.4874
▁+4320	-12.4877
=4	-12.4898
92%	-12.4916
*14	-12.4943
nhạng	-12.4945
▁310	-12.4962
8.4%	-12.4972
128	-12.5012
▁495	-12.5013
▁181	-12.5022
-648	-12.5024
▁488	-12.5038
▁470	-12.5063
9200	-12.5083
387	-12.5098
tai	-12.511
▁158	-12.5142
ửng	-12.5158
▁155	-12.5165
hòa	-12.5169
▁194	-12.5179
▁(16	-12.519
ncác	-12.5231
▁2-2	-12.5233
ku	-12.5233
2.8%	-12.5236
▁3700	-12.5256
▁525	-12.5281
▁195	-12.529
cùm	-12.529
ể	-12.5299
59%	-12.5306
▁+195	-12.5317
▁nhe	-12.5331
scấp	-12.5341
▁+47	-12.5353
ạch	-12.537
+6	-12.5384
▁164	-12.5391
9950	-12.5392
▁146	-12.5397
▁840	-12.5413
ẻ	-12.5427
kh	-12.5432
▁9800	-12.5454
ề	-12.5479
940	-12.5485
▁338	-12.5493
yến	-12.5495
▁174	-12.5504
▁(15	-12.5542
nđộ	-12.5548
cho	-12.5565
í	-12.5566
▁+82	-12.5567
▁42000	-12.5578
▁cuô	-12.5597
ốn	-12.5599
ó	-12.5603
▁7400	-12.5608
▁khoan	-12.5611
46%	-12.5617
:9.	-12.5623
▁660	-12.5634
lalalalalalalala	-12.5643
▁150%.	-12.5644
▁4300	-12.5645
▁hoà	-12.5652
1520	-12.5661
▁191	-12.567
ự	-12.5678
64%	-12.5684
▁té	-12.569
ú	-12.5694
▁gợ	-12.5695
▁vó	-12.5702
▁8800	-12.5703
▁255	-12.5712
net	-12.5717
ath	-12.5727
户	-12.5728
▁99999	-12.5731
▁355	-12.5731
9.0	-12.5736
▁+144	-12.5739
▁167	-12.5761
hoán	-12.5761
hiển	-12.5762
cầntốn	-12.5763
▁16800	-12.5764
或者	-12.5765
kaspar	-12.5765
+26000	-12.5766
crodile	-12.5766
bạc	-12.5767
liukang	-12.5768
huynh	-12.5768
dành	-12.5769
nhẫn	-12.5769
bụi	-12.5769
quỹ	-12.5769
khụ	-12.5769
giọng	-12.5769
trúc	-12.5769
trứng	-12.5769
tiệc	-12.5769
hài	-12.5769
ngoài	-12.5769
quyền	-12.5769
tháp	-12.5769
đơn	-12.5769
giúp	-12.5769
ngàn	-12.5769
châu	-12.577
thực	-12.577
tuyển	-12.577
mãnh	-12.577
ký	-12.577
màu	-12.5771
▁2900	-12.5771
càng	-12.5773
+15000	-12.5773
xảo	-12.5773
thuế	-12.5775
12.5%	-12.5776
bay	-12.578
for	-12.5783
đạm	-12.5783
+30%	-12.5784
quất	-12.5785
vùng	-12.5786
tề	-12.5787
+$1	-12.5788
óng	-12.5793
ngạo	-12.5796
▁485	-12.5798
hung	-12.5799
bông	-12.5801
:8	-12.5804
tion	-12.5807
phút	-12.5808
2500	-12.5809
▁+89	-12.5811
▁toạ	-12.5811
▁khê	-12.5812
▁vù	-12.5814
游戏软件	-12.582
式	-12.5821
于	-12.5821
相	-12.5821
合作	-12.5821
需要	-12.5821
受	-12.5822
▁ngươ	-12.5822
有关	-12.5822
应当	-12.5822
帐号	-12.5822
springfestival	-12.5822
公共	-12.5822
开	-12.5822
corgi	-12.5822
surpeggs	-12.5822
grid	-12.5822
▁nistra	-12.5822
"},{6,"	-12.5822
_1_1}	-12.5822
▁({1}/{2})	-12.5822
▁auto	-12.5822
▁giục	-12.5822
▁gấm	-12.5822
▁hức	-12.5822
▁locfuho	-12.5822
▁lấm	-12.5822
▁mặn	-12.5822
▁panda	-12.5822
▁sầm	-12.5822
▁sậy	-12.5822
▁update	-12.5822
▁ðăng	-12.5822
▁đọng	-12.5822
▁【$6】	-12.5822
▁logic	-12.5822
▁sticker	-12.5822
▁{1}:{2}	-12.5822
▁tởm	-12.5822
▁21:30-22:00	-12.5822
totoro	-12.5822
▁shit	-12.5822
idol	-12.5822
向您提供	-12.5822
▁tợn	-12.5822
}-${	-12.5822
▁huề	-12.5822
compos	-12.5822
▁dawn	-12.5822
中止	-12.5822
▁phược	-12.5822
▁kẹt	-12.5822
5%+7000	-12.5822
————	-12.5822
▁nhủ	-12.5822
和使用	-12.5823
tabs	-12.5823
▁nhẽ	-12.5823
1860	-12.5823
_2_	-12.5823
power	-12.5823
▁sưởng	-12.5824
▁loãng	-12.5824
▁thẩn	-12.5824
▁+146	-12.5825
▁dán	-12.5825
▁chẵn	-12.5825
▁11-30	-12.5825
▁+130000	-12.5826
▁lụa	-12.5826
▁đực	-12.5826
▁cội	-12.5826
▁186	-12.5826
▁($1/1	-12.5826
mill	-12.5827
▁1080%	-12.5828
▁cớ	-12.5829
▁phết	-12.5829
▁sục	-12.5831
▁hước	-12.5834
ime	-12.5834
▁huyện	-12.5834
ga	-12.5835
▁759	-12.5836
▁bể	-12.5837
▁bug	-12.5837
▁371	-12.5837
giáo	-12.5837
▁huyế	-12.5838
▁khâm	-12.584
▁ngụ	-12.584
▁18:00	-12.584
olas	-12.584
▁trưa	-12.5842
▁cmt	-12.5844
▁开发者有权	-12.5845
tiền	-12.5845
ffffff	-12.5847
▁phiếm	-12.5848
▁6/6	-12.5848
▁elsa	-12.5853
▁我们将	-12.5853
】*%	-12.5854
▁290%	-12.5854
▁174%	-12.5856
▁+13000	-12.5856
▁$1$2	-12.5858
▁570	-12.5858
▁620	-12.586
▁củi	-12.5861
huhu	-12.5861
▁tẩm	-12.5862
thúy	-12.5862
nse	-12.5862
▁4050	-12.5864
▁váng	-12.5866
▁180%.	-12.5867
▁bra	-12.5868
▁sưởi	-12.587
>>	-12.5875
11:00	-12.5875
kun	-12.5876
▁162	-12.5877
▁kaspar	-12.5879
mau	-12.5879
▁vãi	-12.588
▁mịt	-12.5882
lang	-12.5883
▁5.8%	-12.5883
▁169	-12.5884
▁9.6%	-12.5884
▁béo	-12.589
▁+741	-12.589
ow	-12.5892
81%	-12.5897
▁sấy	-12.59
*26	-12.5902
▁chốc	-12.5907
▁1080	-12.5908
▁12500	-12.5911
▁3.8%	-12.5911
▁+28000	-12.5912
hạt	-12.5913
▁húc	-12.5914
▁nhó	-12.5915
):2.	-12.5916
▁+11%	-12.5918
▁phạn	-12.592
▁6500	-12.5931
mắt	-12.5933
▁thơi	-12.5936
▁350000	-12.5937
▁205	-12.594
▁+$1	-12.594
▁nv	-12.5941
task	-12.5942
▁$1/1	-12.595
▁4100	-12.5955
▁640	-12.597
▁365%	-12.5971
▁我们会	-12.5974
▁bane	-12.5974
▁222	-12.5986
▁46%	-12.5988
▁460%	-12.5996
▁104%	-12.5999
▁1.1%	-12.6002
/1)	-12.6005
▁2.25%	-12.6019
3400	-12.6034
▁51%	-12.6037
▁bar	-12.6064
▁340	-12.6067
▁106	-12.6073
+39000	-12.6073
▁par	-12.6074
▁10.8%	-12.6075
3(	-12.6077
情况	-12.609
▁nhào	-12.6099
▁215	-12.6107
▁cưng	-12.6132
▁uông	-12.6135
▁+45	-12.6142
eng	-12.6143
610	-12.6183
▁550%	-12.62
*32	-12.6209
6000;}	-12.6213
▁108%	-12.6216
18750	-12.6216
nô	-12.6238
+525	-12.6239
▁1:1	-12.6242
的个人信息	-12.6248
$7	-12.6284
▁up	-12.6289
▁3100	-12.6302
▁189	-12.6303
▁{{"1	-12.6311
▁1-5	-12.632
)......	-12.6326
140	-12.6328
▁hahaha	-12.6329
▁+550	-12.6333
$2/10	-12.6343
▁163	-12.6356
▁10%+20000	-12.6358
▁+44	-12.6365
▁cù	-12.6372
53%	-12.6373
▁ruồ	-12.6386
ara	-12.6407
com	-12.6433
▁262	-12.6484
▁193	-12.6523
90%	-12.6524
ui	-12.6534
198	-12.654
▁(18	-12.655
500+	-12.6558
▁1/2	-12.6577
▁880	-12.6632
▁+165	-12.6644
4800	-12.6656
440	-12.6658
▁sà	-12.6659
▁+81	-12.6678
560	-12.668
7.6%	-12.6707
▁$1/100000	-12.6725
▁183	-12.6727
▁3375	-12.6728
8600	-12.6733
▁142	-12.6742
nthú	-12.6754
iệp	-12.6764
340	-12.6772
▁0.6	-12.679
690	-12.6805
▁990	-12.6819
6.2%	-12.6828
870	-12.6832
▁690	-12.6835
ệ	-12.6842
1800	-12.6854
▁233	-12.6856
▁+275	-12.6875
.250	-12.6888
̀	-12.6905
▁600000	-12.6922
2925	-12.6924
▁134	-12.6927
▁detr	-12.6948
▁tiê	-12.6957
▁249	-12.6961
您不	-12.6963
ya	-12.6971
ầ	-12.6978
me	-12.6985
▁+13500	-12.7003
192	-12.7018
165%	-12.7029
0:00	-12.7037
▁1/5	-12.7047
个人	-12.7051
▁+36	-12.706
;16	-12.7071
bà	-12.7123
96%	-12.7137
ngây	-12.7152
▁950	-12.7162
▁9400	-12.7181
hóng	-12.7181
身份	-12.7194
▁127	-12.7217
▁235	-12.7244
(3)	-12.7249
▁+135	-12.7254
set	-12.7259
;96	-12.7264
trì	-12.7265
▁910	-12.7265
▁que	-12.7276
88000	-12.7285
ội	-12.7296
ữ	-12.7301
▁rạn	-12.7312
dy	-12.7319
ợp	-12.732
~10	-12.7328
▁8200	-12.7329
▁84000	-12.7332
▁179	-12.7343
▁1050	-12.7344
iến	-12.7347
{""	-12.7348
▁238	-12.7369
▁lú	-12.737
▁+270	-12.7376
应用	-12.7378
ạng	-12.7406
▁$2/5	-12.7406
▁850	-12.741
740	-12.7412
▁28800	-12.7413
giả	-12.7417
▁giã	-12.7419
iệu	-12.7429
[221]	-12.743
cả	-12.7431
▁6800	-12.7432
vani	-12.7432
▁+4800	-12.7433
aiden	-12.7433
zhao	-12.7434
halloween	-12.7435
vườn	-12.7435
cháu	-12.7435
lò	-12.7435
ngón	-12.7435
buồn	-12.7435
liliaya	-12.7435
thuần	-12.7435
thục	-12.7435
dục	-12.7435
giận	-12.7435
trụy	-12.7435
đẹp	-12.7435
cướp	-12.7435
quần	-12.7435
vận	-12.7435
chạy	-12.7435
vinh	-12.7435
gió	-12.7435
vẫn	-12.7436
muốn	-12.7436
trùng	-12.7436
món	-12.7436
giành	-12.7436
thịnh	-12.7436
thể	-12.7436
thiền	-12.7436
thuẫn	-12.7436
thầy	-12.7436
lượng	-12.7436
kể	-12.7436
tô	-12.7436
bệ	-12.7437
vệ	-12.7437
của	-12.7437
vĩ	-12.7439
chịu	-12.7439
bế	-12.744
đôi	-12.744
đeo	-12.744
lỗi	-12.744
lấy	-12.7441
đêm	-12.7444
hot	-12.7444
lập	-12.7446
chảy	-12.7446
chiếm	-12.7446
bác	-12.7448
đuổi	-12.7449
reo	-12.745
-328	-12.7463
vui	-12.7467
▁4680	-12.7468
▁25%+3	-12.7468
▁+110	-12.7474
▁cươ	-12.7475
nghề	-12.7477
理	-12.7479
▁xxxxxx	-12.7479
▁6400	-12.7479
ỳ	-12.7481
:00-24:00	-12.7484
▁đờ	-12.7484
▁thán	-12.7486
all	-12.7486
▁alvin	-12.7487
向	-12.7487
产	-12.7487
您可以	-12.7488
▁hằn	-12.7488
当	-12.7488
提	-12.7488
游	-12.7488
的行为	-12.7488
lingpool	-12.7488
接受	-12.7488
superwelfare	-12.7488
有权	-12.7488
lingchong	-12.7489
quality	-12.7489
▁vặt	-12.7489
"},{7,"	-12.7489
drogon	-12.7489
▁#5585	-12.7489
▁(99.9%)	-12.7489
▁0.4/0.8/1.2	-12.7489
▁achates	-12.7489
▁bigworth	-12.7489
▁carnes	-12.7489
▁close	-12.7489
▁emily	-12.7489
▁farm	-12.7489
▁giòn	-12.7489
▁inbox	-12.7489
▁jingmi	-12.7489
▁kuroktar	-12.7489
▁nhức	-12.7489
▁ròng	-12.7489
▁rưởi	-12.7489
▁súc	-12.7489
▁thắm	-12.7489
▁turto	-12.7489
▁voice	-12.7489
▁vằn	-12.7489
▁web	-12.7489
▁ðại	-12.7489
▁ðịnh	-12.7489
▁đĩa	-12.7489
▁đục	-12.7489
▁ưa	-12.7489
合理	-12.7489
安	-12.7489
接相关的	-12.7489
▁65001300	-12.7489
▁cooldown	-12.7489
▁lãi	-12.7489
:00-23:00	-12.7489
gear	-12.7489
护人	-12.7489
mainiconatlas	-12.7489
mibaosystem	-12.7489
atlas	-12.7489
▁+4233	-12.7489
▁dền	-12.7489
授权同意	-12.7489
▁zing	-12.7489
▁pate	-12.7489
▁1.2/1.6	-12.7489
▁+1784	-12.7489
▁rmb	-12.7489
的情况下	-12.7489
ybo	-12.7489
▁beta	-12.7489
▁14:00	-12.7489
▁trội	-12.7489
▁09:	-12.7489
▁url	-12.7489
▁mỳ	-12.7489
▁chẽ	-12.7489
shenji	-12.7489
▁0.45%	-12.749
▁3344	-12.749
▁mẻ	-12.749
▁0.65%	-12.749
▁20:00-20:15	-12.749
▁gran	-12.749
▁note	-12.749
▁trễ	-12.749
▁trăn	-12.749
▁lị	-12.749
▁2.9%	-12.749
▁+1279	-12.749
▁+5850	-12.749
mvp	-12.749
▁(1/250	-12.749
▁77%.	-12.7491
▁logo	-12.7491
;101	-12.7491
▁men	-12.7491
▁1,2.5	-12.7492
▁+2657	-12.7492
▁sáp	-12.7492
▁ngổ	-12.7492
socketid	-12.7493
flo	-12.7493
/1.6	-12.7493
▁dì	-12.7494
▁spongebob	-12.7494
▁19:30-19:45	-12.7495
▁xxxx	-12.7495
▁nhũn	-12.7495
▁jinj	-12.7496
▁10%+150000	-12.7496
▁haiz	-12.7499
▁ngác	-12.7499
▁19800	-12.7499
▁xù	-12.7499
▁cháo	-12.75
▁lụ	-12.7501
gay	-12.7501
▁toại	-12.7502
0.1%	-12.7502
▁5800	-12.7503
$5	-12.7505
▁năn	-12.7505
▁12:00	-12.7505
▁ala	-12.7506
▁heights	-12.7506
▁cày	-12.7507
▁kép	-12.7507
3.2%	-12.7508
pro	-12.7509
▁hĩ	-12.7511
▁2200%	-12.7513
act	-12.7517
▁đày	-12.7517
zi	-12.752
▁răn	-12.7521
▁+892	-12.7527
▁202%	-12.7529
▁以及	-12.7529
hạch	-12.7531
=""40	-12.7532
khôn	-12.7532
▁21.6%	-12.7536
▁livestream	-12.7536
▁19:30	-12.7536
▁5850	-12.7537
▁44000	-12.7537
huỷ	-12.7541
▁đoàng	-12.7548
▁2400%	-12.7549
▁+17%	-12.755
▁7560	-12.7555
▁或者	-12.7557
+15%	-12.7558
/10)	-12.756
▁465%	-12.7563
▁5600	-12.7563
▁3150	-12.7565
▁1125	-12.7567
▁440	-12.7567
_1]%	-12.7568
▁141	-12.7576
91%	-12.7581
▁144%	-12.7589
▁公开	-12.7589
▁1980	-12.7593
▁1880	-12.7597
=""20	-12.7598
▁(1/500	-12.7599
▁540%	-12.7604
=""30	-12.7606
▁+8100	-12.7606
▁250000	-12.7607
▁3.3%	-12.7607
▁+200%	-12.7608
▁124%	-12.7609
▁335	-12.761
▁286	-12.7614
▁96%	-12.7617
?||	-12.7621
▁305	-12.7634
▁345	-12.7634
▁vy	-12.7639
21)	-12.7644
cta	-12.7651
▁226	-12.7651
▁780%	-12.7651
▁ju	-12.7656
~%	-12.7658
▁156	-12.7661
▁258	-12.7662
xa	-12.7669
89%	-12.7669
▁以	-12.7674
▁114	-12.768
▁+480	-12.768
kd	-12.7683
▁1100%	-12.769
6888	-12.7693
▁chưng	-12.7694
▁810	-12.7695
326	-12.7709
=12	-12.7711
▁(0/4	-12.7717
▁1.7%	-12.7723
▁78%	-12.7729
;11	-12.7737
9.6%	-12.7739
3500	-12.775
▁nai	-12.7764
▁1-10	-12.7765
▁137	-12.7775
hội	-12.7784
.280	-12.7785
▁(1/700	-12.7785
▁vạ	-12.7797
▁xào	-12.7805
【9	-12.7808
▁+820	-12.7808
ware	-12.7814
▁213	-12.7824
用于	-12.7828
▁khoang	-12.7833
0.000	-12.7842
▁gàng	-12.7851
fun	-12.7851
▁ngủi	-12.7866
trừng	-12.7866
-98(	-12.7882
▁使用	-12.789
ít	-12.7898
▁151	-12.7906
380	-12.7914
7350	-12.7916
.1*1	-12.7928
▁fe	-12.7941
▁39600	-12.7945
cán	-12.7947
▁khóax	-12.7949
▁""?""	-12.795
▁điểmthưởng	-12.7961
▁1-6	-12.7972
16500	-12.798
+19000	-12.7997
88888	-12.8012
▁115%	-12.8029
▁999999	-12.8039
▁quát	-12.8053
;94	-12.8054
▁+1)	-12.807
▁+54	-12.807
▁254	-12.8104
%%}	-12.8106
▁970	-12.8122
960	-12.8129
24000	-12.8142
▁chừ	-12.8174
ngưu	-12.8186
▁705	-12.8258
+27000	-12.827
'!""	-12.8325
00:00	-12.8337
▁+145	-12.8346
▁0.8	-12.8403
005	-12.8486
▁209	-12.8494
▁1430	-12.85
▁234	-12.8528
382	-12.853
399	-12.8548
0/7	-12.8561
*52	-12.8561
▁1388	-12.8589
▁+19	-12.8596
▁+38	-12.86
27%	-12.8602
97%	-12.8628
967	-12.8646
;00	-12.867
31%	-12.8713
的任何	-12.872
ab	-12.8729
uồn	-12.8738
36000	-12.8775
▁285	-12.8778
▁1440	-12.8782
▁(1/8	-12.8806
的服务	-12.8814
▁+291	-12.8829
【5	-12.8892
685	-12.8921
▁70%+1000	-12.8923
▁17500	-12.8949
▁46.	-12.895
▁172	-12.8956
▁864	-12.9002
▁+149	-12.9023
jie	-12.9035
▁284	-12.9041
▁0/5	-12.9058
▁384	-12.9077
▁231	-12.9082
]="#	-12.9103
▁197	-12.9128
61%	-12.9137
▁+177	-12.9152
▁920	-12.9154
+300	-12.9169
31000	-12.918
▁975	-12.9188
▁1111	-12.9211
▁117	-12.9215
720	-12.9228
=#0	-12.9229
▁136	-12.9229
▁870	-12.9234
▁12600	-12.9242
-10000	-12.9251
▁rà	-12.9253
▁740	-12.9255
-20:45	-12.9271
*500	-12.9272
▁16200	-12.9281
phấn	-12.9291
▁+1400	-12.9299
▁+3900	-12.9299
thôn	-12.9301
▁96000	-12.9302
315000	-12.9307
▁+630	-12.9308
▁9200	-12.9319
▁18888	-12.9322
▁0.9	-12.9331
▁138	-12.9337
+450	-12.9349
hang	-12.9356
/15	-12.9378
▁+14	-12.9381
▁2.6	-12.9383
▁8600	-12.9387
q	-12.9391
▁sô	-12.9393
ana	-12.9397
▁670	-12.9405
yết	-12.941
▁159	-12.9413
▁6300	-12.9421
▁149	-12.9422
38%	-12.9424
19:30	-12.9429
livestream	-12.9431
以及	-12.9431
bane	-12.9432
我们会	-12.9432
pet	-12.9434
lợ	-12.9434
trói	-12.9435
trào	-12.9435
sosa	-12.9435
bẫy	-12.9435
luận	-12.9435
ví	-12.9435
đức	-12.9435
thề	-12.9435
tránh	-12.9435
đợi	-12.9435
đứng	-12.9435
avatar	-12.9436
đoạn	-12.9436
trải	-12.9436
rèn	-12.9436
nhược	-12.9436
thì	-12.9436
kiến	-12.9436
địch	-12.9436
的个人	-12.9437
binh	-12.9437
xxx	-12.9437
thác	-12.9437
điệp	-12.9438
đệ	-12.9438
▁64000	-12.9438
điên	-12.9439
biên	-12.9439
tội	-12.9439
bước	-12.944
lính	-12.944
npc	-12.9441
kính	-12.9443
▁25%+4	-12.9444
ạc	-12.9449
(0/1)	-12.9453
{3}	-12.9454
xong	-12.9458
▁+320	-12.9458
thiện	-12.946
ngạc	-12.946
dữ	-12.946
nchi	-12.9463
mừng	-12.9465
▁203	-12.9466
▁gươ	-12.9466
ược	-12.9467
+50	-12.9475
ngoa	-12.9479
▁jo	-12.9479
可能会	-12.9483
hẵn	-12.9484
dam	-12.9486
▁cuồn	-12.9488
不限于	-12.9488
▁21:00-21:	-12.9488
政	-12.9488
▁siê	-12.9488
▁6200	-12.9488
作	-12.9488
游戏中	-12.9488
plant	-12.9488
▁123456	-12.9488
record	-12.9488
shenshou	-12.9488
qingyuan	-12.9488
competitive	-12.9488
shenwang	-12.9488
treasur	-12.9488
▁pot	-12.9489
guitar	-12.9489
521>	-12.9489
ocola	-12.9489
▁21:05	-12.9489
▁alpha	-12.9489
▁biết	-12.9489
▁chuộng	-12.9489
▁elland	-12.9489
▁facebook	-12.9489
▁fenglin	-12.9489
▁giêng	-12.9489
▁kalvin	-12.9489
▁locke	-12.9489
▁nịt	-12.9489
▁quặc	-12.9489
▁ruộng	-12.9489
▁shenglong	-12.9489
▁willie	-12.9489
▁{"【1】	-12.9489
▁[224]%	-12.9489
▁copy	-12.9489
▁lãm	-12.9489
squidward	-12.9489
▁cạp	-12.9489
▁raymond	-12.9489
special	-12.9489
iconbwzl	-12.9489
▁vồng	-12.9489
card	-12.9489
▁soạn	-12.9489
▁0/0	-12.9489
=8},	-12.9489
list	-12.9489
对于	-12.9489
得您的	-12.9489
▁olympic	-12.9489
您需要	-12.9489
esk	-12.9489
向您	-12.9489
6000'>	-12.9489
▁rock	-12.9489
200%/300%	-12.9489
止对用户提供	-12.9489
▁(30%)	-12.9489
【3】	-12.9489
【4】	-12.9489
享	-12.9489
▁ada	-12.9489
▁(1%)	-12.9489
fuji	-12.9489
▁cole	-12.9489
▁+9547	-12.9489
【2】	-12.9489
▁thâu	-12.949
▁mửa	-12.949
▁ria	-12.949
▁kẽ	-12.949
▁+97500	-12.949
▁+334	-12.949
▁đẻ	-12.949
▁+648	-12.9491
▁21:30	-12.9491
port	-12.9491
▁đũ	-12.9491
▁sênh	-12.9491
▁xuôi	-12.9491
▁3.9%	-12.9491
▁+5929	-12.9492
▁{1}{2}	-12.9492
+0.01	-12.9492
equippanel	-12.9492
▁hihi	-12.9492
▁orc	-12.9492
▁+218	-12.9492
▁víu	-12.9493
▁+2800	-12.9493
fly	-12.9493
▁+1296	-12.9494
=22	-12.9495
▁kèo	-12.9495
我们可能会	-12.9497
9/9	-12.9498
8;}	-12.9498
▁ghé	-12.9499
▁+2600	-12.9499
▁+107	-12.9499
▁13125	-12.95
▁ngẫm	-12.9502
(0/3	-12.9502
▁0.9%	-12.9503
tơ	-12.9504
▁11.25%	-12.9505
▁thắn	-12.9505
▁nớt	-12.9506
▁+310	-12.9506
0.5	-12.9506
750%	-12.9507
đao	-12.9508
▁chảo	-12.9508
▁carnival	-12.9508
;[	-12.9508
0228;%	-12.9509
lord	-12.951
▁+720	-12.9512
▁1320%	-12.9513
▁tráp	-12.9514
dễ	-12.9514
▁162%	-12.9515
mật	-12.9515
cj	-12.9519
▁wo	-12.9519
▁oánh	-12.9521
xing	-12.9523
▁0/6	-12.9524
▁1~2	-12.9525
▁+19%	-12.9525
▁+119	-12.9527
▁11.2%	-12.9527
▁toản	-12.9528
▁156%	-12.9533
▁6.7%	-12.9534
▁我	-12.9535
=""60	-12.9535
▁0/4	-12.9535
}*%	-12.9536
▁+800	-12.9538
▁z	-12.9538
▁153	-12.9539
▁bới	-12.9541
sáng	-12.9543
▁$1/1280	-12.9547
▁vắt	-12.9547
▁2160	-12.9548
482	-12.9548
▁790	-12.9551
▁nhá	-12.9557
+42000	-12.9559
▁960%	-12.9567
【16	-12.9568
▁720%	-12.9569
▁sồ	-12.957
may	-12.9572
▁108000	-12.9575
▁1.9%	-12.9575
2.2%	-12.9579
【15	-12.958
▁3888	-12.9585
▁mẹo	-12.9589
▁5/5	-12.959
ngăn	-12.9592
ling	-12.9593
▁the	-12.9593
+25%	-12.9596
;22	-12.9597
▁cầntốn	-12.9597
▁67.5%	-12.9599
mãng	-12.9601
▁[{0}	-12.9607
【13	-12.9608
▁quách	-12.9614
▁8.4%	-12.962
▁..."""	-12.9622
▁2/2	-12.9624
555555555555555	-12.9625
【11	-12.9626
▁0.4	-12.9629
4,6	-12.9642
8"",	-12.9646
▁+99	-12.9648
90000	-12.9651
▁62%	-12.9653
▁+193	-12.9655
-8*1	-12.9659
12.12	-12.9662
ủa	-12.9674
▁+3.5%	-12.968
【8	-12.9682
▁sàn	-12.9683
▁730	-12.9684
▁sập	-12.9689
▁1150	-12.9691
see	-12.9694
▁711	-12.9702
▁590	-12.9703
▁+35%	-12.9716
ngân	-12.974
▁(50%	-12.9743
one	-12.9744
▁128%	-12.9754
you	-12.9768
1111	-12.977
▁265%	-12.9774
▁fa	-12.9778
350%	-12.9785
▁+221	-12.9787
bán	-12.9791
2300	-12.9793
【12	-12.9797
▁47%	-12.9798
680	-12.9811
▁32000	-12.9813
【10	-12.9815
:4000	-12.9817
▁2-6	-12.9822
shang	-12.9828
manh	-12.9828
▁uh	-12.9833
服务时	-12.9835
▁275	-12.9839
84%	-12.9854
的请求	-12.9865
▁lêu	-12.9872
相关的	-12.988
▁$1/200000	-12.9899
7600	-12.9911
用户帐号的	-12.9928
;56	-12.9932
▁710	-12.9934
▁/11	-12.9951
gút	-12.9953
▁33000	-12.9962
▁hahahahahaha	-12.9965
+5000	-12.9969
▁phạ	-12.9984
▁380%	-13.0003
8800	-13.0007
.05%	-13.0017
ze	-13.0054
▁+2204	-13.0067
*1500	-13.0073
*17	-13.0081
▁mả	-13.0084
bag	-13.01
+2000	-13.0102
▁+9999	-13.0115
▁379	-13.012
667	-13.0128
的安全	-13.0132
+600000	-13.0158
▁+411	-13.0171
▁655	-13.0191
88800	-13.0194
▁825	-13.0207
+400000	-13.0222
▁muỗ	-13.0222
▁672	-13.0225
{2,	-13.024
853	-13.0246
▁+222	-13.0247
▁+258	-13.0262
588	-13.0263
ẹt	-13.0273
*700	-13.0284
▁001	-13.03
4.6%	-13.0302
4.8%	-13.0303
6/2	-13.0317
处理个人信息	-13.0321
18;1	-13.0334
▁279	-13.0367
==	-13.0379
+250	-13.0382
100000	-13.0399
共享您的个人信息	-13.0416
▁890	-13.0431
+33%	-13.0444
ate	-13.0463
365	-13.0473
0.8	-13.0508
个人信息的	-13.0508
=20	-13.0516
;99	-13.0549
(0/	-13.0551
77%	-13.0585
▁264	-13.0603
+700000	-13.0612
▁gở	-13.063
1186	-13.0646
64000	-13.0676
0;	-13.0695
15000	-13.0734
▁278	-13.0754
▁498	-13.076
3680	-13.0794
94%	-13.0821
""1	-13.0826
▁(1/5000	-13.0879
159	-13.0904
▁272	-13.0908
16000	-13.0922
7.7%	-13.0924
▁(1/10000	-13.0927
652	-13.0988
ẹo	-13.0998
137	-13.1004
▁$1/50000	-13.1031
277	-13.1049
▁248	-13.1079
▁(1/15	-13.1147
▁ngùn	-13.1173
▁1560	-13.1235
+150	-13.1238
▁+363	-13.1264
17%	-13.1275
▁817	-13.1332
▁(0/5	-13.1351
125%	-13.1372
7250	-13.14
▁me	-13.1429
0228	-13.1494
-199	-13.1502
▁299	-13.1516
ét	-13.1529
▁765	-13.1533
the	-13.1542
3240	-13.1542
▁208	-13.1561
▁15600	-13.1565
18'>2	-13.158
oạt	-13.1591
▁293	-13.1598
500000	-13.16
~5	-13.1605
▁289	-13.1622
▁940	-13.1646
xian	-13.1718
str	-13.1719
▁33600	-13.1724
▁291	-13.1743
khô	-13.1754
gọn	-13.1755
thú	-13.1787
▁5040	-13.1794
1.2%	-13.1799
▁448	-13.1803
▁ngà	-13.1815
ă	-13.1817
▁lượ	-13.1819
▁263	-13.1827
840000	-13.1828
▁585	-13.1836
▁1170	-13.1837
▁455	-13.1869
1350	-13.1873
est	-13.1873
▁930	-13.1896
▁1820	-13.1903
▁*5000	-13.1903
▁0/10	-13.1905
▁+390	-13.1912
▁735	-13.1913
596	-13.1914
tú	-13.1927
hách	-13.1928
我	-13.193
gắn	-13.1931
elsa	-13.1932
我们将	-13.1932
hừ	-13.1933
+13000	-13.1933
già	-13.1933
vulcan	-13.1934
30000+	-13.1934
khác	-13.1934
trác	-13.1935
đậu	-13.1935
bùm	-13.1935
nash	-13.1935
lọc	-13.1935
+675	-13.1935
yểm	-13.1935
cắm	-13.1935
hoài	-13.1935
stickman	-13.1935
kênh	-13.1935
thiểm	-13.1935
soái	-13.1935
mưa	-13.1935
mối	-13.1935
nhặt	-13.1935
trống	-13.1935
tùy	-13.1936
thẩm	-13.1936
tịnh	-13.1936
khuôn	-13.1936
xóa	-13.1936
mức	-13.1936
tiện	-13.1936
kèm	-13.1936
cộng	-13.1936
tộc	-13.1936
chuyên	-13.1936
doanh	-13.1936
triển	-13.1936
lí	-13.1936
điển	-13.1936
khang	-13.1936
giống	-13.1936
80}	-13.1936
khuynh	-13.1937
lựa	-13.1937
lẽ	-13.1937
chợ	-13.1937
thêm	-13.1938
kỷ	-13.1938
▁265	-13.1938
test	-13.1938
bề	-13.1938
xoa	-13.1939
biến	-13.1939
xé	-13.1939
đợt	-13.1939
viên	-13.1939
lộc	-13.1939
15.0%	-13.1939
thấy	-13.194
cẩm	-13.1941
2850	-13.1943
nhô	-13.1946
cẩn	-13.1949
+375	-13.195
kiêu	-13.1951
căn	-13.1951
▁+7.5%	-13.1952
+2500	-13.1952
tiếc	-13.1955
cấu	-13.1957
lê	-13.196
{#	-13.1964
thấp	-13.1965
1.6/	-13.1967
▁lươ	-13.1968
在使用	-13.1969
axi	-13.197
▁417	-13.197
tùng	-13.1971
frame	-13.1973
ẩu	-13.1976
+50%	-13.1977
▁+156	-13.1984
app	-13.1984
xâm	-13.1985
▁dàn	-13.1985
▁+585	-13.1987
合	-13.1988
确	-13.1988
者	-13.1988
可以	-13.1988
value	-13.1988
护	-13.1988
同	-13.1988
startframe	-13.1988
软件	-13.1988
attribute	-13.1988
rườ	-13.1988
single	-13.1988
marry	-13.1988
cyberpunk	-13.1988
limite	-13.1988
real	-13.1988
}->${	-13.1988
开发者应当	-13.1988
服	-13.1988
▁chicken	-13.1989
"},{0,"	-13.1989
+2846	-13.1989
barbie	-13.1989
bearman	-13.1989
khặc	-13.1989
material	-13.1989
orde	-13.1989
rechargebiggift	-13.1989
▁12:00-12:	-13.1989
▁12:30~2	-13.1989
▁15:30-16:00	-13.1989
▁16:30-16:50	-13.1989
▁[$5]$6	-13.1989
▁atro	-13.1989
▁cọp	-13.1989
▁derus	-13.1989
▁dragon	-13.1989
▁ellens	-13.1989
▁khớp	-13.1989
▁kuloktar	-13.1989
▁lốp	-13.1989
▁mccartny	-13.1989
▁muggle	-13.1989
▁norbolin	-13.1989
▁nuối	-13.1989
▁pavenzi	-13.1989
▁piano	-13.1989
▁spopovich	-13.1989
▁support	-13.1989
▁xhosa	-13.1989
▁xắn	-13.1989
▁zherek	-13.1989
shenjibailian	-13.1989
▁(1/60)	-13.1989
▁5%+4000	-13.1989
▁sếp	-13.1989
使	-13.1989
:<*>/	-13.1989
consum	-13.1989
▁$1/9760	-13.1989
▁99:99	-13.1989
▁maicheng	-13.1989
▁thẹn	-13.1989
▁xèng	-13.1989
gather	-13.1989
▁iser	-13.1989
▁$1/19800	-13.1989
使用我们的服务	-13.1989
▁$1/2960	-13.1989
▁【$4】	-13.1989
=9},	-13.1989
▁+1065	-13.1989
▁45.5%	-13.1989
产权	-13.1989
权限	-13.1989
logi	-13.1989
确保	-13.1989
▁skin	-13.1989
campbattle	-13.1989
[233]	-13.1989
=304	-13.1989
▁+117000	-13.1989
▁33.5%	-13.1989
scre	-13.1989
share	-13.1989
▁+3569	-13.1989
2>>>>>>>>	-13.1989
18'>5	-13.1989
▁gáp	-13.1989
▁+30180	-13.1989
▁12:30	-13.1989
▁kiệu	-13.1989
▁quệ	-13.1989
或其他	-13.1989
▁trề	-13.1989
明确	-13.199
▁0.01%	-13.199
/2020	-13.199
vana	-13.199
▁5555	-13.1991
tic	-13.1991
▁chăn	-13.1991
▁vadria	-13.1991
wing	-13.1991
▁--{	-13.1992
xxxxxxxxx	-13.1993
▁ross	-13.1993
tling	-13.1993
investmentp	-13.1993
▁ssvip	-13.1993
▁mạp	-13.1993
=39	-13.1993
+750	-13.1993
▁+367	-13.1993
▁+228	-13.1994
▁khuya	-13.1994
▁nhún	-13.1994
▁quathư	-13.1994
▁5%+3000	-13.1995
▁gồ	-13.1995
▁xược	-13.1995
▁cache	-13.1996
▁xẻ	-13.1996
▁5%+2000	-13.1996
▁xú	-13.1996
erson	-13.1996
▁5%+5000	-13.1996
▁(1/13	-13.1996
▁$6	-13.1996
▁860	-13.1997
0:0:	-13.1997
▁+6500	-13.1998
▁callaghan	-13.1998
▁code	-13.1998
▁8:00-24:00	-13.2
▁5888	-13.2
mỏ	-13.2001
▁gíap	-13.2002
elf	-13.2002
▁nhoáng	-13.2003
gem	-13.2003
▁+266	-13.2003
▁sên	-13.2005
▁:4	-13.2006
▁5%+6000	-13.2007
▁nhím	-13.2007
;140	-13.2007
▁hót	-13.2007
【5】	-13.2009
▁cừ	-13.2009
lian	-13.2011
▁您在	-13.2011
{{},	-13.2012
▁bự	-13.2014
▁$1/980	-13.2015
▁2~3	-13.2015
1700	-13.2016
▁{1700	-13.2016
▁150%+3000	-13.2017
▁请	-13.2018
▁15%+5000	-13.2021
▁lẻo	-13.2021
19:00-19:15	-13.2021
▁0/8	-13.2022
*73	-13.2023
.350	-13.2024
▁0.7	-13.2024
▁3000000	-13.2024
992	-13.2025
gô	-13.2025
▁thiển	-13.2026
mãi	-13.2029
▁$2/6	-13.2029
▁xời	-13.203
▁5%+8000	-13.2032
▁5%+9000	-13.2032
▁18:30	-13.2032
▁8:00	-13.2034
ley	-13.2034
1"",""	-13.2035
*80000	-13.2036
*100000	-13.2038
_4]	-13.2041
▁6.3%	-13.2041
fea	-13.2043
▁1990	-13.2044
+33000	-13.2045
+36000	-13.2045
▁(1/120	-13.2046
tế	-13.2047
▁1.《	-13.205
▁bĩ	-13.2053
▁vuông	-13.2054
chủng	-13.2054
cốt	-13.2056
▁658	-13.2056
ide	-13.2057
▁{0}{1}/	-13.2058
thỏa	-13.2062
▁lẹ	-13.2063
ngôi	-13.2066
▁ngáo	-13.2066
20:30-20:50	-13.2068
115	-13.2068
▁4/5	-13.207
▁56000	-13.2073
▁507	-13.2074
nghiêm	-13.2075
▁676	-13.208
▁data	-13.2084
▁10/10	-13.2084
▁385	-13.2086
▁xiết	-13.2086
▁hấu	-13.2088
▁4/4	-13.2088
sơx	-13.2089
▁chót	-13.2091
▁30000+	-13.2097
*36	-13.2098
▁788	-13.2099
tước	-13.21
main	-13.21
/10%	-13.2102
▁472	-13.2104
▁12.8%	-13.2104
▁8100	-13.2107
*1800	-13.2107
▁băn	-13.2108
▁{5}	-13.2109
rang	-13.2109
▁4.3%	-13.2115
tẩm	-13.2121
_2}	-13.2121
▁86%	-13.2125
▁2333	-13.2129
""."	-13.213
44%	-13.2132
▁2850	-13.2134
0%+45000	-13.2137
▁knbthưởng	-13.2139
*50000	-13.2149
▁4950	-13.2151
fc	-13.2158
请您	-13.2178
▁+0.8%	-13.2197
▁láo	-13.22
94500	-13.2204
1/12	-13.2209
▁lag	-13.2217
▁239	-13.2217
+51000	-13.2219
4200	-13.2226
770	-13.2229
▁chuy	-13.2251
738	-13.2304
197	-13.2308
990	-13.2335
/4)	-13.2344
''	-13.2348
78%	-13.2356
▁(1/30000	-13.2358
▁+61	-13.2379
=41	-13.2383
▁64%	-13.2394
*1200	-13.2403
6000+	-13.2418
111111	-13.2425
▁(1/1000	-13.243
▁+116	-13.2434
nder	-13.2448
uck	-13.2456
+3000	-13.2464
+56	-13.2468
72000	-13.253
▁(1/20000	-13.2547
490	-13.2573
ame	-13.2584
▁$1/300000	-13.2604
+4600	-13.2614
=24	-13.27
▁miê	-13.2726
▁$1/680	-13.2729
đả	-13.2753
▁+2%%	-13.282
ble	-13.2821
不得	-13.2872
896	-13.288
4400	-13.2899
▁($	-13.2914
▁37800	-13.2922
+48000	-13.2945
9320	-13.2947
lei	-13.2956
74%	-13.2957
hả	-13.2966
本政策	-13.2967
▁$1/500000	-13.3047
1240	-13.3062
▁+67	-13.3075
▁+2160	-13.3075
*90	-13.3077
gờ	-13.3134
19500	-13.3145
▁487	-13.3148
37%	-13.3159
▁+748	-13.326
uế	-13.3286
0/1	-13.3292
▁[5]="	-13.3301
▁$1/10000	-13.3314
▁hử	-13.332
khá	-13.3337
▁2104	-13.3339
cl	-13.3361
4950	-13.3368
975	-13.3512
▁297	-13.3528
▁478	-13.3541
777	-13.3577
▁9720	-13.3632
942	-13.3641
▁15%+1000	-13.3647
▁+9500	-13.3673
▁+87	-13.3743
在您	-13.3769
799	-13.3777
634	-13.3819
▁mè	-13.3841
▁+1440	-13.3893
tin	-13.3915
▁12960	-13.3921
▁+5600	-13.3941
▁+3150	-13.3959
▁(1/100000	-13.3992
▁+6750	-13.3996
▁8640	-13.4052
▁+11000	-13.4058
▁+7800	-13.4061
1280	-13.4072
▁(1/50000	-13.4075
▁462	-13.4085
281	-13.4101
▁988	-13.4101
政策所	-13.4102
9999	-13.4104
▁3840	-13.4114
+625	-13.412
0~40	-13.4148
▁gả	-13.4186
个人信息安全	-13.419
;55	-13.4191
▁11880	-13.4205
200000	-13.4326
▁($2/$	-13.4379
134%	-13.4398
▁937	-13.4399
▁784	-13.4441
4]="	-13.4443
593	-13.4443
iễn	-13.4449
▁24500	-13.4455
中的	-13.4466
▁343	-13.4509
▁10000000	-13.4514
hahahahahaha	-13.4527
▁+126	-13.4565
▁292	-13.4601
▁287	-13.4606
▁665	-13.4609
信息用于	-13.4619
▁+261	-13.4636
▁15120	-13.466
400%	-13.4667
áp	-13.4667
▁15%+3000	-13.4677
▁+1350	-13.4682
▁50400	-13.4812
▁1780	-13.4836
0.6	-13.4845
▁0/20	-13.4849
▁13300	-13.4851
*280	-13.4869
▁456	-13.4897
▁15%+4000	-13.4903
▁2520	-13.491
ộ	-13.492
▁15%+6000	-13.4926
▁785	-13.4934
请	-13.5026
▁20400	-13.5027
433	-13.5033
+300000	-13.5048
▁2000000	-13.507
▁465	-13.5071
▁$1/2000	-13.5113
3035	-13.5114
▁865	-13.5116
(0/1	-13.5119
▁mil	-13.5134
▁nhâ	-13.5137
▁mạ	-13.5147
ight	-13.5147
▁10080	-13.5148
â	-13.5162
▁78000	-13.5175
▁555	-13.5184
▁nhì	-13.5188
▁toà	-13.519
▁+225	-13.5197
campactboss	-13.5215
reward	-13.5215
▁+12.5%	-13.5218
8:00	-13.5225
户服务	-13.5232
▁271	-13.5237
662	-13.5242
vù	-13.5249
ịch	-13.5255
lạ	-13.5255
24:00	-13.5259
miê	-13.5261
18:30	-13.5262
5%+9000	-13.5262
data	-13.5264
5%+8000	-13.5264
kill	-13.5265
开发者有权	-13.5265
▁9450	-13.5266
gửi	-13.5266
teresa	-13.5267
($1)	-13.5268
trọc	-13.5268
gậy	-13.5268
sảng	-13.5268
kém	-13.5268
nhuệ	-13.5269
đạp	-13.5269
nguồn	-13.5269
đúc	-13.5269
xúc	-13.5269
dậy	-13.5269
trắng	-13.5269
quạt	-13.5269
tạp	-13.5269
rìu	-13.5269
trăm	-13.5269
chặn	-13.5269
trần	-13.5269
loạn	-13.5269
phiếu	-13.5269
máu	-13.5269
trưởng	-13.5269
đặt	-13.5269
trời	-13.5269
qian	-13.5269
▁1260	-13.527
vuốt	-13.527
liệu	-13.527
kình	-13.527
nhiên	-13.5271
tuyên	-13.5271
hơn	-13.5271
nham	-13.5271
+235	-13.5271
cược	-13.5272
mạn	-13.5272
kiều	-13.5273
gì	-13.5273
khoáng	-13.5274
liêm	-13.5275
đâu	-13.5275
hỏi	-13.5275
câu	-13.5276
+0.1%	-13.5276
+25000	-13.5277
khấp	-13.5278
điền	-13.5279
đỡ	-13.5279
diêu	-13.528
+720	-13.528
gọi	-13.5282
thư	-13.5282
tượng	-13.5282
+1600	-13.5283
thao	-13.5283
+900	-13.5285
tiếng	-13.5286
+100%	-13.5288
mạng	-13.529
lông	-13.5291
zu	-13.5292
18;5	-13.5293
+131	-13.5293
rge	-13.5294
178	-13.5297
cành	-13.5298
khuyế	-13.5298
bỉ	-13.5299
{3}/	-13.5301
299	-13.5302
提供服务	-13.5303
rõ	-13.5304
hạnh	-13.5305
▁dũ	-13.5311
670	-13.5311
...""""	-13.5312
28000	-13.5313
ỵ	-13.5315
▁vớ	-13.5316
investment	-13.5316
13880	-13.5316
▁我们可能	-13.5317
""},153	-13.5317
lè	-13.5318
yuan	-13.5319
ote	-13.5319
的所有	-13.5319
产品	-13.532
:00-20:00	-13.5321
▁vượn	-13.5321
求	-13.5321
份	-13.5321
据需要	-13.5321
▁<*>/	-13.5321
18'>10	-13.5322
向用户	-13.5322
ult	-13.5322
您可	-13.5322
明确同意	-13.5322
advance	-13.5322
mixdevice	-13.5322
mount	-13.5322
,1,1},{1,2049043	-13.5322
house	-13.5322
wei	-13.5322
[2020100	-13.5322
feisheng	-13.5322
gift	-13.5322
juex	-13.5322
zhany	-13.5322
zhuxian	-13.5322
▁spine	-13.5322
▁{20000302	-13.5322
"},{8,"	-13.5322
"12.12","12.12"	-13.5322
assist	-13.5322
▁327810;	-13.5322
"},{9,"	-13.5322
"}},{{1,"	-13.5322
$3/$4	-13.5322
12:00-14:00	-13.5322
4,1,1}	-13.5322
5535;	-13.5322
[239]	-13.5322
archery	-13.5322
assassin	-13.5322
callback	-13.5322
faction	-13.5322
foxy	-13.5322
kuroko	-13.5322
▁(25.0%)	-13.5322
▁16:30-17:00	-13.5322
▁19:45-2	-13.5322
▁22:00-22:30	-13.5322
▁40001101	-13.5322
▁aladin	-13.5322
▁bặm	-13.5322
▁cữu	-13.5322
▁dấm	-13.5322
▁hamburger	-13.5322
▁hihihihi	-13.5322
▁huawei	-13.5322
▁kenshin	-13.5322
▁komberi	-13.5322
▁kẹp	-13.5322
▁liekong	-13.5322
▁morian	-13.5322
▁nghẹn	-13.5322
▁pudding	-13.5322
▁rằm	-13.5322
▁salinde	-13.5322
▁trajan	-13.5322
▁tằm	-13.5322
▁wechat	-13.5322
▁wizelfaya	-13.5322
▁xốp	-13.5322
▁{{{1,"	-13.5322
▁ðoàn	-13.5322
▁ðồng	-13.5322
▁đoài	-13.5322
▁đặng	-13.5322
以下情况	-13.5322
信	-13.5322
护人同意	-13.5322
ẩ	-14.0172
≥	-14.027
身	-14.032
供	-14.0321
共	-14.0322
接	-14.0322
他	-14.0325
处	-15.032
况	-15.0322
软	-15.0322
们	-15.0322
授	-15.6812
何	-15.6813
策	-15.6814
帐	-15.6815
戏	-15.6816
ẵ	-15.6817
息	-15.6818
ð	-15.6819
≤	-15.682
̉	-15.6821
ẳ	-15.6822
ằ	-15.6823
ẫ	-15.6824
ỹ	-15.6825
ò	-15.6826
ặ	-15.6827
ỗ	-15.6828
ắ	-15.6829
ọ	-15.683
ứ	-15.6831
ố	-15.6832
ầ	-15.6833
ậ	-15.6834
ấ	-15.6835
ư	-15.6836
